<unk>	0
<s>	0
</s>	0
▁	-2.13956
a	-3.72661
H	-4.1209
m	-4.13796
aH	-4.2888
am	-4.31964
▁ca	-4.35918
e	-4.41299
A	-4.6431
aM	-4.79687
AH	-4.91598
o	-4.99591
▁na	-5.19156
M	-5.41329
An	-5.4777
EH	-5.49392
▁eva	-5.58307
ena	-5.59877
na	-5.64658
asya	-5.65715
ca	-5.68636
I	-5.6929
sya	-5.70688
ya	-5.72585
'	-5.73512
At	-5.7465
▁iti	-5.81017
vA	-5.83324
▁a	-5.84836
O	-5.90118
uvAca	-5.91698
▁sa	-5.92823
r	-5.94635
▁tu	-5.95209
▁tat	-5.95231
i	-5.97849
▁uvAca	-5.99
▁taTA	-5.99267
tu	-6.01664
▁api	-6.03563
yA	-6.03596
te	-6.08595
vi	-6.10041
Ani	-6.17142
t	-6.1816
ezu	-6.23256
n	-6.25552
ti	-6.29492
▁vi	-6.30276
s	-6.30944
sa	-6.33883
▁pra	-6.36884
Aya	-6.37118
nA	-6.38743
yam	-6.40749
va	-6.42753
▁vA	-6.44031
▁hi	-6.46242
▁sarva	-6.47062
Am	-6.50186
▁te	-6.50895
ta	-6.5168
hi	-6.54289
u	-6.554
▁tatra	-6.56022
pra	-6.56692
k	-6.60586
yaH	-6.62938
eRa	-6.64122
Er	-6.64349
S	-6.66092
▁yaTA	-6.66403
AnAm	-6.67367
ye	-6.68644
ni	-6.69931
ra	-6.72936
c	-6.73184
vE	-6.74189
yo	-6.75253
yaM	-6.75418
▁tasya	-6.76821
▁aTa	-6.8201
d	-6.8351
Ad	-6.85278
me	-6.86508
▁yat	-6.90777
▁evam	-6.91965
Sca	-6.94237
pi	-6.95741
BiH	-6.97006
ma	-7.00467
sarva	-7.02437
▁iva	-7.02524
pa	-7.02992
ha	-7.03685
▁upa	-7.05018
▁aham	-7.05891
ka	-7.05963
AM	-7.06381
▁tam	-7.08052
an	-7.08461
h	-7.09486
z	-7.09581
▁yaH	-7.11768
eva	-7.139
AnAM	-7.14295
p	-7.14528
l	-7.14744
tat	-7.16229
▁etat	-7.1637
▁vE	-7.16734
aSca	-7.16769
tA	-7.1723
▁tadA	-7.17299
taTA	-7.17433
su	-7.18244
et	-7.18545
D	-7.19859
▁anu	-7.20076
cA	-7.2088
aMca	-7.21116
sva	-7.21143
▁punaH	-7.21807
▁Darma	-7.2216
sam	-7.22778
▁me	-7.23937
▁sam	-7.23968
yat	-7.24314
y	-7.25154
la	-7.27605
g	-7.28418
tam	-7.29269
da	-7.29319
yAt	-7.29768
yaTA	-7.29941
▁sA	-7.30941
▁ni	-7.31014
▁sva	-7.32146
▁tvam	-7.32524
iti	-7.34665
ARAm	-7.34935
tad	-7.35207
mA	-7.35391
▁kim	-7.36352
sA	-7.37246
taM	-7.37843
▁atra	-7.38285
as	-7.39164
si	-7.39584
▁aBi	-7.41019
▁Bavet	-7.42205
▁deva	-7.42924
▁idam	-7.43009
nu	-7.4381
▁SrI	-7.45447
yAm	-7.45729
yate	-7.46296
tasya	-7.47045
ja	-7.47461
j	-7.48229
Mca	-7.49188
v	-7.49374
kam	-7.49554
naH	-7.52277
U	-7.52366
re	-7.52504
▁sarve	-7.5274
ne	-7.53335
nam	-7.53753
stu	-7.54915
▁brahma	-7.55455
f	-7.56995
pad	-7.57274
kaH	-7.57499
ru	-7.57584
Sa	-7.57709
B	-7.57793
ARi	-7.58312
yAH	-7.58829
kar	-7.58838
▁mama	-7.58918
▁saha	-7.58994
ram	-7.59356
Ta	-7.59452
▁namaH	-7.59708
▁yadi	-7.60266
deva	-7.6086
▁iha	-7.62039
ro	-7.62054
pari	-7.62258
b	-7.62396
kft	-7.63158
tAm	-7.63449
▁dfzwvA	-7.63843
▁ayam	-7.6392
Bi	-7.63923
Darma	-7.63993
kz	-7.64003
ASca	-7.64779
▁tena	-7.64819
▁ud	-7.65579
bal	-7.65635
zu	-7.67697
karma	-7.68092
jit	-7.68367
ARAM	-7.68439
Bavat	-7.70399
van	-7.71396
tadA	-7.71688
taH	-7.71805
kA	-7.72092
▁tava	-7.7296
ayaH	-7.73053
pat	-7.73089
Di	-7.73543
pA	-7.74561
no	-7.74572
tatra	-7.74932
w	-7.75004
▁sarvam	-7.75249
to	-7.75551
▁syAt	-7.75903
▁prati	-7.7614
yAn	-7.76192
yena	-7.76335
▁rAjA	-7.7677
par	-7.77168
tAM	-7.77856
▁sUta	-7.78139
▁rAja	-7.78531
▁param	-7.78786
▁mayA	-7.78832
▁pari	-7.79564
muK	-7.79886
mama	-7.8019
▁karma	-7.80645
rA	-7.80888
saM	-7.81425
lA	-7.81429
yad	-7.81583
▁ye	-7.81707
ke	-7.81715
▁kaTam	-7.81774
tra	-7.8235
▁eza	-7.8236
iva	-7.82517
opa	-7.82678
api	-7.83139
haM	-7.8398
BUt	-7.84325
▁saH	-7.84746
▁arTam	-7.84894
vit	-7.8519
▁an	-7.85336
▁yatra	-7.85398
ayA	-7.85581
Sar	-7.8604
sarv	-7.86156
▁eka	-7.86508
▁vESampAyanaH	-7.86727
uH	-7.86789
mayA	-7.88091
▁tezAm	-7.88629
tvaM	-7.88941
gfh	-7.89156
▁ava	-7.89662
saha	-7.90071
R	-7.91175
samA	-7.91201
G	-7.91511
ur	-7.91702
jY	-7.91711
yog	-7.91807
brahma	-7.92427
rAja	-7.92528
ri	-7.92541
▁ucyate	-7.93246
var	-7.93371
rAjA	-7.93651
ati	-7.93703
dev	-7.94316
zw	-7.94408
RA	-7.95192
prati	-7.95334
cEva	-7.95483
kAm	-7.95548
doz	-7.95656
yu	-7.96238
▁kftvA	-7.96746
ras	-7.96822
inaH	-7.96992
jan	-7.97054
anti	-7.97584
nI	-7.98309
rAkzas	-7.98933
▁abravIt	-7.99088
As	-7.99135
nti	-7.9914
Dan	-7.99686
kAr	-7.99765
▁ati	-7.99999
tar	-8.00078
Dar	-8.00336
▁ha	-8.00406
BA	-8.00496
▁nir	-8.00508
guR	-8.00908
BAv	-8.01015
sidD	-8.01043
mat	-8.01266
tena	-8.0141
rAjan	-8.02975
pAp	-8.03507
eByaH	-8.03984
sv	-8.04224
▁tri	-8.04262
ba	-8.04282
▁SrutvA	-8.04472
nAm	-8.04492
▁su	-8.04554
varR	-8.04806
tava	-8.04928
Ra	-8.05289
yoH	-8.05842
Bir	-8.05848
ast	-8.06057
tO	-8.06097
param	-8.06187
ko	-8.0632
▁Bavati	-8.06459
nir	-8.06884
Ava	-8.07014
sarve	-8.07183
▁asti	-8.07447
Sak	-8.07794
man	-8.08114
ESca	-8.08139
tri	-8.08213
▁arTa	-8.0864
sO	-8.0875
▁tasmin	-8.09718
▁mat	-8.0978
mi	-8.09783
▁mAm	-8.09805
▁uktam	-8.09968
vAn	-8.10098
yatra	-8.10541
dakziR	-8.11479
▁vESaMpAyana	-8.12028
▁yadA	-8.12057
AS	-8.12095
K	-8.12495
▁samA	-8.12818
▁adya	-8.12897
▁indra	-8.12911
tan	-8.12934
aS	-8.12996
DA	-8.1315
▁Atma	-8.13443
cC	-8.13967
vaS	-8.1401
tva	-8.14039
vIr	-8.14231
vft	-8.14277
▁rAjan	-8.1438
▁yasya	-8.14579
ve	-8.14586
yukt	-8.14602
Bav	-8.14921
▁sUtaH	-8.15106
loka	-8.15346
▁Aha	-8.15566
E	-8.15677
Pal	-8.15829
▁pUrva	-8.16042
yas	-8.16061
Rq	-8.16188
▁agni	-8.16325
guru	-8.16352
▁tad	-8.16694
SuB	-8.16739
iH	-8.16755
AtmA	-8.16818
yAM	-8.16938
▁evaM	-8.17426
Bavati	-8.17449
dur	-8.17872
upa	-8.17967
sadA	-8.18182
jAyate	-8.184
vya	-8.18784
rU	-8.18799
▁ete	-8.19348
▁tvayA	-8.20137
▁ut	-8.20303
iz	-8.20648
sTit	-8.20838
kiM	-8.21129
vfdD	-8.21194
gam	-8.21387
▁purA	-8.21514
punar	-8.2206
prA	-8.22319
ga	-8.227
punaH	-8.22829
dfzw	-8.22988
Ng	-8.23209
▁rasa	-8.23503
▁mahat	-8.23671
▁ka	-8.23727
jAt	-8.23735
▁sadA	-8.23952
it	-8.24056
mantr	-8.24078
zwa	-8.24281
Bavet	-8.24343
mUl	-8.24419
putr	-8.24536
um	-8.24993
pu	-8.25105
▁nara	-8.25186
tAn	-8.25297
▁bahu	-8.25468
Sez	-8.25656
▁sama	-8.25693
asyaca	-8.25951
tI	-8.26165
▁AtmA	-8.26195
rUp	-8.263
kfta	-8.26543
▁mA	-8.26674
daH	-8.26736
gaR	-8.26911
kza	-8.2712
▁tAn	-8.27479
▁veda	-8.27492
od	-8.27572
yasya	-8.27593
pUrv	-8.27612
purA	-8.27699
vrat	-8.28108
▁BIzma	-8.28141
vaD	-8.28259
dya	-8.28401
putra	-8.28431
▁tasmAt	-8.28574
▁kAma	-8.2868
vah	-8.28817
vo	-8.29052
T	-8.29128
tvA	-8.2913
sur	-8.29181
▁guRa	-8.29363
rAvaR	-8.29396
hast	-8.29471
BArata	-8.29718
arT	-8.29826
▁paYca	-8.29864
sfzw	-8.30075
▁tapaH	-8.30464
Anica	-8.30504
▁Palam	-8.30603
SarIr	-8.30727
eca	-8.3082
car	-8.30943
ut	-8.31089
han	-8.31192
q	-8.31342
karR	-8.31875
raRa	-8.31979
dfzwvA	-8.321
▁kft	-8.32143
yan	-8.32149
▁prA	-8.32286
pAd	-8.32392
kAla	-8.32502
▁nfpa	-8.32651
sama	-8.32731
ik	-8.33221
veda	-8.33377
▁mahA	-8.33453
Bavan	-8.33705
▁tAm	-8.33904
smi	-8.33932
badD	-8.33973
vyA	-8.34007
Sabd	-8.34338
astu	-8.34711
parvat	-8.34712
raT	-8.34727
vid	-8.34849
hIn	-8.34856
▁loka	-8.34928
asi	-8.35057
ed	-8.35087
▁BArata	-8.35243
lI	-8.35271
dA	-8.35348
ad	-8.35549
darSan	-8.35758
rasa	-8.35995
ate	-8.36023
ayoH	-8.36069
Bed	-8.36494
gar	-8.36681
▁S	-8.36808
Bakt	-8.36867
syAt	-8.36911
jal	-8.36929
ISvar	-8.3704
syA	-8.37055
▁apa	-8.37114
Al	-8.37147
Darm	-8.37291
Gor	-8.37355
BU	-8.37434
▁Barata	-8.37497
▁vAta	-8.37992
ste	-8.38061
deS	-8.38184
rI	-8.38331
BAg	-8.38374
▁rakta	-8.38434
▁pitta	-8.38565
▁para	-8.38646
Ada	-8.38691
Ami	-8.38751
▁saMSayaH	-8.39072
raRe	-8.39101
nfpa	-8.3912
sarvaM	-8.39228
▁kAla	-8.39248
loke	-8.39402
yadi	-8.39425
yuH	-8.39468
naM	-8.39545
jA	-8.39619
parA	-8.39653
▁kftam	-8.39707
▁guru	-8.39947
banD	-8.40034
▁mArkaRqeyaH	-8.40119
ity	-8.40472
paraM	-8.40492
asyA	-8.40847
nAma	-8.40938
mAnuz	-8.40973
hft	-8.41043
sTAn	-8.41214
▁putraH	-8.41227
para	-8.41248
mAM	-8.41508
▁pA	-8.41622
▁ja	-8.41857
▁jagat	-8.41952
▁uttamam	-8.42245
saH	-8.42263
gA	-8.42321
ved	-8.42397
viDi	-8.42455
vipr	-8.42547
AMSca	-8.42643
In	-8.42754
vI	-8.4282
dAnav	-8.42874
li	-8.42914
ArT	-8.42944
jaH	-8.4298
▁putra	-8.43104
in	-8.43426
Eva	-8.43777
har	-8.4407
nE	-8.44115
evaca	-8.44322
fz	-8.44389
ucyate	-8.44426
▁Bava	-8.44427
▁puruza	-8.44507
▁kuryAt	-8.44961
praty	-8.45155
▁bala	-8.45192
brAhmaR	-8.453
itam	-8.45351
at	-8.45899
bahu	-8.46843
gu	-8.46887
▁vaD	-8.46914
So	-8.46992
prAR	-8.47019
▁vAkyam	-8.47072
SIt	-8.47202
mitr	-8.47396
patiH	-8.47433
so	-8.47449
mahA	-8.47577
▁jAyate	-8.47608
yante	-8.47648
sT	-8.47788
kzaR	-8.4787
▁uktaH	-8.47994
gata	-8.48291
SA	-8.4837
mAs	-8.48876
tap	-8.48879
dvay	-8.48965
tal	-8.49197
▁svayam	-8.49211
muni	-8.49366
kaM	-8.49394
▁kuru	-8.49475
budD	-8.49539
nihat	-8.4955
▁ataH	-8.49578
kAma	-8.49596
▁asi	-8.49693
vAsa	-8.49748
▁aBavat	-8.49823
di	-8.50075
mad	-8.50308
ScA	-8.50321
kuru	-8.50419
divy	-8.50473
DAr	-8.50522
yanti	-8.50675
paYca	-8.50719
kAra	-8.50778
Aha	-8.50862
se	-8.50919
gataH	-8.50953
za	-8.51035
manu	-8.51068
yati	-8.51134
itaH	-8.51145
▁fzaBa	-8.51231
mar	-8.5172
viz	-8.51721
kriyA	-8.51777
lakzaR	-8.51948
▁anye	-8.51969
eza	-8.5198
droR	-8.52018
▁kar	-8.52069
dad	-8.52075
jap	-8.52113
sahasr	-8.52151
jYAn	-8.52226
kAle	-8.52257
syAd	-8.52451
puruz	-8.52568
Adi	-8.52633
dAn	-8.52868
pIt	-8.53007
▁kfta	-8.53026
▁anyat	-8.53095
Da	-8.53177
▁BIzmaH	-8.53485
diS	-8.53514
rAma	-8.53554
▁Sa	-8.53612
ir	-8.53664
im	-8.5423
Bft	-8.54281
jIvit	-8.54363
Bavizyati	-8.54391
▁aDi	-8.54477
Ar	-8.54677
▁sarvezAm	-8.54784
dr	-8.54856
le	-8.55084
▁SfRu	-8.55111
▁BUta	-8.55165
Siv	-8.55192
rudr	-8.55414
mal	-8.55454
hya	-8.55464
dizw	-8.55501
AR	-8.55678
SudD	-8.55691
staTA	-8.55915
sadfS	-8.55924
devA	-8.56113
gatA	-8.56269
aMtu	-8.5632
saMSayaH	-8.56461
prasAd	-8.56514
▁DarmaH	-8.56551
▁ved	-8.56592
nya	-8.567
▁parama	-8.56824
brahmaR	-8.56893
dvij	-8.57002
sEny	-8.57166
▁anena	-8.57206
▁brahmA	-8.57301
Atmak	-8.57441
ScEva	-8.57553
kzay	-8.57575
dravy	-8.57587
Ram	-8.576
Ba	-8.57659
suK	-8.57956
▁yoga	-8.58001
Sat	-8.58119
cApi	-8.5829
Yja	-8.58305
prApt	-8.58441
▁kfzRa	-8.58475
cAr	-8.58566
akaH	-8.58721
anam	-8.58772
sra	-8.58844
▁satya	-8.5886
kalp	-8.58905
ottam	-8.58921
akam	-8.59218
nAg	-8.59223
▁yAvat	-8.59287
AByAm	-8.5934
liNg	-8.59651
vikram	-8.59673
▁loke	-8.59797
▁kaPa	-8.59809
ava	-8.59826
ant	-8.59898
okt	-8.60083
smin	-8.6011
rUpa	-8.60361
reRa	-8.60374
jagat	-8.60453
Srut	-8.60454
vas	-8.6071
vidyA	-8.60803
pe	-8.60813
eSvar	-8.60866
ag	-8.60877
zwA	-8.60885
tvam	-8.60992
nta	-8.61065
evA	-8.61068
yakz	-8.61312
ganD	-8.61367
▁vidyA	-8.61615
gat	-8.61641
kuSal	-8.61785
▁dvi	-8.61837
▁tvAm	-8.6226
RAm	-8.62372
▁devAH	-8.62388
dD	-8.62414
vat	-8.62462
SUr	-8.62544
▁Pala	-8.62876
▁kA	-8.62926
satya	-8.63284
▁satyam	-8.63342
yuktA	-8.63395
yAni	-8.63438
eka	-8.63655
kaTaM	-8.63711
▁vizRu	-8.63773
sad	-8.63803
▁kAryam	-8.6412
hari	-8.6418
deh	-8.64251
Y	-8.64258
tezAM	-8.64426
▁kAm	-8.6449
vizay	-8.64571
lo	-8.64606
rAGav	-8.6464
▁asO	-8.64642
ganDarv	-8.64666
jIv	-8.64668
viSez	-8.64687
taT	-8.64715
sahit	-8.64745
pAn	-8.64748
san	-8.64799
vraj	-8.6481
▁vacaH	-8.64934
nd	-8.6502
jvar	-8.65263
vAnar	-8.65329
grah	-8.6545
iBiH	-8.65468
vftt	-8.6547
▁BU	-8.65557
tapas	-8.6557
Bava	-8.65616
naca	-8.65631
nAS	-8.65711
▁hari	-8.65776
krudD	-8.65788
pARqav	-8.65832
▁mft	-8.65839
vfkz	-8.65986
tvayA	-8.6601
pArT	-8.66026
yuta	-8.66106
jYA	-8.66172
maDur	-8.66209
eti	-8.66388
statra	-8.66627
Su	-8.66668
ASram	-8.66724
varz	-8.6678
Sizy	-8.6689
viD	-8.66971
Ama	-8.67082
▁deha	-8.67099
nArAyaR	-8.67404
ak	-8.6743
kul	-8.67431
Anu	-8.67608
praB	-8.67741
Bog	-8.6775
karmaRA	-8.67757
vaH	-8.67815
lam	-8.67829
sah	-8.67852
▁Adi	-8.67869
▁pApa	-8.68015
▁varza	-8.68059
yajY	-8.68061
idaM	-8.68149
kfzR	-8.68268
etad	-8.684
aMtaTA	-8.68447
▁balam	-8.68455
kasya	-8.687
izw	-8.6881
▁aBya	-8.68819
▁brAhmaR	-8.68975
smft	-8.69073
pakz	-8.69088
labD	-8.6913
inI	-8.69232
raH	-8.69349
viviD	-8.69433
▁Bavizyati	-8.69592
tAni	-8.69632
▁doza	-8.69658
▁rAkzasa	-8.69698
Sram	-8.69699
hy	-8.69772
lok	-8.69999
jYey	-8.70024
▁ras	-8.70116
pUjit	-8.70175
yE	-8.70231
▁mantra	-8.70276
▁ISvara	-8.70404
prIti	-8.70442
astaTA	-8.70461
ot	-8.70798
Bya	-8.70821
rAjYA	-8.70861
nity	-8.71273
maDya	-8.71306
kAH	-8.7148
pann	-8.71544
yoga	-8.71545
▁kAle	-8.7156
Atma	-8.71735
▁BAg	-8.7186
nar	-8.71893
▁arTaH	-8.72033
aHsa	-8.72216
kzatriy	-8.72359
kftvA	-8.72394
▁AtmanaH	-8.72432
aScEva	-8.72433
▁sat	-8.73041
yAd	-8.73055
sAm	-8.73138
kftaM	-8.73159
ud	-8.73234
kAl	-8.73414
sti	-8.73443
▁asmi	-8.7392
▁AtmAnam	-8.74104
enaca	-8.74158
▁varRa	-8.74275
▁antar	-8.74374
▁paramam	-8.74427
▁par	-8.7445
▁strI	-8.74495
Ur	-8.74524
tIkzR	-8.74661
vizRu	-8.74671
▁UcuH	-8.74703
mAna	-8.74739
rAg	-8.74801
▁akza	-8.74999
PalaM	-8.75053
ku	-8.75117
▁nAga	-8.75138
avya	-8.75168
▁BUtAnAm	-8.75188
bAR	-8.75301
doza	-8.75333
bala	-8.75411
mukta	-8.75448
SfNg	-8.75476
sura	-8.75646
▁manaH	-8.75772
siMh	-8.75915
maraR	-8.75967
du	-8.75983
nO	-8.76019
tav	-8.76085
▁vya	-8.76112
cakr	-8.7624
BUta	-8.76454
yug	-8.76698
lakz	-8.76717
up	-8.76758
Bojan	-8.76781
prIt	-8.76822
hetu	-8.76891
kaw	-8.76938
pUrva	-8.77025
jay	-8.77052
▁uktvA	-8.77082
▁daSa	-8.77117
▁yena	-8.7716
tAH	-8.77209
mucyate	-8.77246
vftti	-8.77438
purAR	-8.77611
uttam	-8.77744
▁dam	-8.77802
viDA	-8.77834
parama	-8.77846
sU	-8.77879
mft	-8.77906
yAti	-8.77929
▁pitA	-8.78035
aye	-8.78074
ikA	-8.78104
budDi	-8.78172
▁nAnA	-8.78195
▁azwa	-8.78284
prApya	-8.78419
raM	-8.78517
▁ekam	-8.78642
▁rudra	-8.78754
sarvA	-8.78768
parAkram	-8.78816
dIn	-8.78888
sut	-8.78949
AMS	-8.79054
mAnas	-8.79058
ham	-8.79219
mahAtmanaH	-8.79263
Ri	-8.79322
gaj	-8.7951
amidaM	-8.79524
▁mahAn	-8.79647
hfday	-8.79648
▁kanyA	-8.79661
yant	-8.79694
rog	-8.79732
yAnti	-8.79736
pati	-8.79784
paSya	-8.80024
▁naraH	-8.80097
AtmanA	-8.80102
pAtr	-8.80107
endr	-8.80206
▁ISvaraH	-8.80236
▁Bavanti	-8.80245
▁maDye	-8.80386
dagD	-8.8047
Sok	-8.80488
fR	-8.8057
str	-8.80712
▁candra	-8.8076
▁maDu	-8.80843
kroD	-8.80915
mArg	-8.80978
▁jana	-8.80987
bAl	-8.8099
sneh	-8.81055
varg	-8.81102
rAm	-8.81188
▁sapta	-8.81282
kazAy	-8.81298
AnAMca	-8.81335
▁viza	-8.81397
etat	-8.81423
▁jYAna	-8.81626
pARi	-8.81931
▁pitf	-8.8195
prakfti	-8.8197
hitam	-8.82042
may	-8.82061
yatAm	-8.82174
manuzy	-8.8218
harz	-8.82264
ArTaM	-8.82267
▁sura	-8.823
▁rUpam	-8.82319
daRq	-8.82339
kfzRa	-8.8243
▁Darm	-8.82629
amuttamam	-8.82659
sId	-8.82699
hitA	-8.82721
sma	-8.82747
pArTiv	-8.82851
maDye	-8.82903
ona	-8.82942
mahat	-8.82998
jana	-8.8305
ovAca	-8.83054
▁soma	-8.8316
▁Siva	-8.83163
cit	-8.83204
vijay	-8.83274
buD	-8.83335
mokz	-8.8334
kzIr	-8.83364
▁tAta	-8.83402
sAgar	-8.83407
▁vipra	-8.83468
tasyA	-8.83771
▁ku	-8.83912
▁ar	-8.83998
▁vara	-8.84008
sy	-8.84052
vy	-8.8406
SUdr	-8.84223
tur	-8.84228
▁hema	-8.84249
SAnt	-8.84287
kzipt	-8.84509
tyAg	-8.84674
▁rUpa	-8.8469
kal	-8.84695
San	-8.84721
dEty	-8.84864
kAry	-8.84907
▁sma	-8.84922
guRa	-8.85027
▁kAraRam	-8.85074
vipul	-8.851
sta	-8.85232
▁parA	-8.8533
▁Sata	-8.8538
pret	-8.85401
praviS	-8.8552
mAnam	-8.85637
dAruR	-8.85672
rUpiR	-8.85675
Baved	-8.8589
pAt	-8.85902
▁raT	-8.85985
ntaH	-8.86084
▁SudDa	-8.86084
Ana	-8.86312
vfz	-8.86378
pI	-8.86532
vartate	-8.86556
sidDi	-8.8666
▁daRqa	-8.86699
ByaH	-8.8671
vAta	-8.86744
drum	-8.86776
Buj	-8.86783
kftA	-8.86788
BIzm	-8.8687
puRy	-8.86977
▁raTa	-8.86986
▁asmin	-8.87001
▁tapasA	-8.87043
vIra	-8.87091
tejas	-8.87103
▁kriyA	-8.87113
▁Sara	-8.87132
tya	-8.87133
▁ganDa	-8.87148
▁saM	-8.87193
karmaRi	-8.8723
gacCati	-8.87463
hanti	-8.87544
varta	-8.87641
kfcCr	-8.87794
Sakti	-8.87799
▁raRe	-8.87806
rT	-8.8783
garB	-8.87868
Siras	-8.87937
kzam	-8.88015
jYAt	-8.88179
yudD	-8.88202
din	-8.88236
grahaR	-8.88265
yoni	-8.88376
dEv	-8.8841
lAB	-8.8852
yadA	-8.88543
Sakt	-8.88609
manas	-8.88695
yama	-8.8871
SAstr	-8.88736
Adity	-8.8877
cCa	-8.88845
▁tAvat	-8.88877
vAyu	-8.88925
UcuH	-8.89095
zA	-8.89188
▁AsIt	-8.89207
kzu	-8.89226
AKy	-8.89268
lavaR	-8.89322
vaMS	-8.89481
deSa	-8.89485
kAryaM	-8.89527
Ms	-8.89545
vinAS	-8.89581
dam	-8.89736
N	-8.89787
▁puzpa	-8.89828
mAMs	-8.89887
mahAdeva	-8.89898
▁tO	-8.89915
dAr	-8.89937
Sastr	-8.89973
yaT	-8.90182
▁BavAn	-8.90193
▁prARa	-8.90206
kram	-8.90224
▁ekaH	-8.90494
lakzmaR	-8.90593
dvi	-8.90633
dvAr	-8.90672
pramAR	-8.90727
▁anvit	-8.90783
SfRu	-8.90808
▁gataH	-8.90962
▁droRa	-8.91073
etu	-8.91078
ezuca	-8.91117
val	-8.91259
▁arTe	-8.91311
▁aNga	-8.91369
AhAr	-8.91558
evaM	-8.91587
cir	-8.91599
ArTa	-8.91611
Suci	-8.91654
ft	-8.91685
jyezW	-8.91692
nfp	-8.91695
puwe	-8.91713
raj	-8.91757
pAda	-8.9178
▁jA	-8.91797
rakz	-8.91813
▁anyaTA	-8.91818
pitf	-8.91819
Dy	-8.91839
▁kva	-8.92268
SAl	-8.92342
pitta	-8.92368
duzw	-8.92369
▁Srut	-8.92388
yet	-8.92481
rati	-8.92615
yuD	-8.92634
vAh	-8.92669
RI	-8.92671
tIrT	-8.92717
▁nArAyaRa	-8.92763
▁go	-8.92859
sUry	-8.92998
▁sarvAn	-8.93049
▁Satam	-8.93099
kAS	-8.93142
aR	-8.9321
Bakti	-8.93348
▁jala	-8.93469
karmA	-8.93471
Aste	-8.93548
DAn	-8.93567
mahAtmanA	-8.93624
▁kArya	-8.93671
avaH	-8.93687
▁devaH	-8.93766
veg	-8.93879
cca	-8.93951
en	-8.93988
▁muni	-8.93997
ty	-8.94101
▁fzayaH	-8.94113
gfhIt	-8.94173
muKy	-8.94185
puw	-8.942
▁var	-8.94245
OzaD	-8.94279
Sam	-8.9433
pitt	-8.94343
strI	-8.94344
py	-8.94367
▁yuDizWira	-8.94408
laH	-8.9443
netr	-8.94433
▁SAstra	-8.94625
▁BIma	-8.94666
Acca	-8.94697
vAkyaM	-8.94698
pal	-8.94723
hA	-8.94728
grAh	-8.94735
pitA	-8.94823
kanyA	-8.94949
putro	-8.94972
▁smftaH	-8.94986
vidy	-8.95017
SEl	-8.95251
▁alpa	-8.95302
kzA	-8.95423
brahmA	-8.95546
iha	-8.95607
▁pfTak	-8.95636
mah	-8.9565
mArkaRqeya	-8.9574
yAmi	-8.95764
stadA	-8.95771
hat	-8.95908
drav	-8.95908
Slok	-8.95916
pAk	-8.95921
prajApati	-8.95923
Im	-8.95996
tyaj	-8.96137
zR	-8.96156
▁viSva	-8.96175
vyakt	-8.96234
karaR	-8.96246
▁catur	-8.96252
▁samam	-8.96482
Re	-8.96507
BAvaH	-8.96593
▁kftA	-8.96619
sarp	-8.96976
Bave	-8.97016
inAm	-8.97023
tizWati	-8.97032
iv	-8.97112
kftam	-8.97116
▁pArTa	-8.97128
itA	-8.97156
sOmy	-8.97234
ruvAca	-8.97265
paramaM	-8.97308
eta	-8.97404
ce	-8.9747
or	-8.97533
BUya	-8.97633
▁yajY	-8.97635
▁jagAma	-8.97663
kIrti	-8.9772
Sata	-8.97816
▁prApya	-8.97871
▁sattama	-8.97873
rUpaM	-8.97876
AByAM	-8.97905
varuR	-8.97963
raR	-8.97975
DI	-8.98187
niz	-8.98246
▁sTA	-8.9826
tapo	-8.98276
BAva	-8.9828
mand	-8.98374
nAsti	-8.98439
atra	-8.98489
▁yad	-8.98489
Bay	-8.98526
▁jaya	-8.98568
nAd	-8.98649
DarmeRa	-8.98842
▁pAda	-8.98847
varza	-8.98898
rARi	-8.98982
kim	-8.99103
kra	-8.99148
Apnoti	-8.99212
puzp	-8.99217
asy	-8.99308
▁jYAnam	-8.99446
▁brAhmaRaH	-8.99476
▁pARqu	-8.995
kumAr	-8.99531
▁aBy	-8.99561
pare	-8.99742
▁deSa	-8.99766
▁samyak	-8.99786
nft	-8.99787
vara	-8.99826
vinA	-8.99938
aScA	-8.99956
kAraR	-8.99977
datta	-9.00065
viSArad	-9.00101
kena	-9.00174
rakta	-9.00176
▁rAma	-9.00203
eByo	-9.0037
ahaM	-9.00374
▁dadyAt	-9.00464
sattam	-9.00517
pr	-9.00527
je	-9.00576
snigD	-9.00697
▁vidyate	-9.00788
sUt	-9.00834
narADipa	-9.00935
nAt	-9.00958
Gft	-9.00984
▁agniH	-9.01001
Palam	-9.01113
sUta	-9.01143
sTA	-9.01202
puzpa	-9.01207
bAnDav	-9.0121
vAr	-9.01276
bIja	-9.01347
yO	-9.01386
dakz	-9.01402
Bavanti	-9.01403
▁kaH	-9.01469
▁imam	-9.01521
karmARi	-9.01593
yeta	-9.01596
▁sUrya	-9.0162
tray	-9.01694
kara	-9.01713
pya	-9.01819
▁AhuH	-9.01824
fzi	-9.01893
DArtarAzwr	-9.01913
BavAn	-9.01943
AtmanaH	-9.01977
keval	-9.01994
maNgal	-9.02037
jag	-9.021
▁B	-9.02171
Brama	-9.02222
▁ana	-9.02328
go	-9.02382
▁sahasra	-9.02452
maRqal	-9.02543
▁vAk	-9.02554
sAr	-9.02555
mfg	-9.02588
salil	-9.02668
mbar	-9.02684
BIt	-9.02823
carit	-9.02838
▁pIta	-9.03026
piRq	-9.03029
ukt	-9.03046
daSa	-9.03047
▁mahAtmanaH	-9.03054
BIm	-9.03198
mU	-9.03209
yoD	-9.03215
deSe	-9.0341
vet	-9.03422
▁yajYa	-9.0344
vats	-9.03445
kuryAt	-9.03476
pur	-9.03531
raTa	-9.03614
patit	-9.03643
▁suKa	-9.03663
kratu	-9.03748
kurute	-9.0384
namaH	-9.03847
▁vIra	-9.03875
yava	-9.03984
ScApi	-9.03997
rjun	-9.04175
aMcEva	-9.04267
df	-9.04331
tAta	-9.04343
kAnt	-9.04437
svayam	-9.04465
santi	-9.04466
nEva	-9.04586
▁Sveta	-9.04609
SiK	-9.04656
yEH	-9.04683
kzat	-9.04685
ata	-9.04732
bahUn	-9.04749
Pala	-9.04863
saMyuge	-9.04869
aMna	-9.0493
tvAM	-9.04936
zaR	-9.04963
prajA	-9.05039
▁upA	-9.05236
AcAr	-9.05266
taTEva	-9.05394
dIpt	-9.05412
▁brAhmaRa	-9.05457
yezu	-9.05494
oH	-9.05496
Agni	-9.05624
▁divyam	-9.05627
DAtu	-9.05703
Sriy	-9.05739
endra	-9.05754
▁ganDarva	-9.05869
puruza	-9.05929
tIt	-9.05973
vidit	-9.05988
▁mUla	-9.05993
rat	-9.06011
SrezWa	-9.06039
indriy	-9.06093
SIl	-9.06154
ced	-9.06224
dvIp	-9.06304
AHsarve	-9.06452
▁aNg	-9.06486
anu	-9.06545
smfti	-9.06546
citt	-9.06742
vApi	-9.06846
▁vizam	-9.06847
yuDi	-9.06892
pet	-9.06921
banDu	-9.06925
suhfd	-9.06944
rAzwr	-9.06984
▁astra	-9.07001
vyavasTit	-9.07043
eR	-9.0707
▁priya	-9.07079
▁kula	-9.07135
rav	-9.07279
▁rAjyam	-9.07315
▁iyam	-9.07413
▁cet	-9.07467
laM	-9.07703
DyAy	-9.07706
viMSati	-9.07771
SrezW	-9.07792
lakzaRam	-9.07845
bAhu	-9.07871
▁amla	-9.07912
sar	-9.07962
mano	-9.07993
rakt	-9.08012
he	-9.08025
AyuD	-9.08091
Dvaj	-9.08166
▁ASrama	-9.08169
ABi	-9.08199
krama	-9.08291
niScay	-9.08384
vAg	-9.0841
▁padam	-9.08423
pApa	-9.08478
KyAt	-9.08491
▁vinA	-9.08506
▁BUmi	-9.08545
▁mfga	-9.0859
▁citra	-9.08596
vAsav	-9.08619
▁manasA	-9.08829
AB	-9.08847
duryoDan	-9.08879
sTitaH	-9.08956
smar	-9.08964
mftyu	-9.09005
gra	-9.09081
kAYcan	-9.0914
hitaM	-9.09162
som	-9.09336
tantr	-9.09343
BImasen	-9.09377
ataH	-9.09424
sapta	-9.0944
vratam	-9.09463
deha	-9.09527
kalyAR	-9.09621
meva	-9.09681
ap	-9.09698
▁tayoH	-9.09713
sat	-9.09715
sevit	-9.09777
gaman	-9.09814
▁gatvA	-9.09822
▁ezA	-9.10067
tAr	-9.10091
kur	-9.10136
SOc	-9.10167
gAtr	-9.10224
sarg	-9.10289
▁puruzaH	-9.10491
divas	-9.1051
niyam	-9.1082
SoBan	-9.10826
pravizw	-9.10846
saty	-9.10872
▁Basma	-9.10881
IM	-9.11049
yajYa	-9.11113
dIp	-9.11157
citr	-9.11198
rTa	-9.11213
ato	-9.11258
gatam	-9.11337
mahABAg	-9.11365
antar	-9.11424
▁Sukra	-9.11425
▁sidDa	-9.11502
▁har	-9.11515
▁tasyAH	-9.11529
sahasraSaH	-9.11546
▁lokam	-9.11548
▁astu	-9.11601
nirmit	-9.11648
ita	-9.11756
▁indr	-9.11856
pAna	-9.11862
▁sneha	-9.11887
yAs	-9.11934
kO	-9.11938
mukt	-9.11958
ANga	-9.11975
rza	-9.12085
amiti	-9.12103
nayan	-9.12181
stA	-9.12233
mAtra	-9.12242
pAla	-9.12243
▁nitya	-9.1233
sarvezAM	-9.12344
moha	-9.12413
mArut	-9.12418
tasmin	-9.12554
sattama	-9.12571
▁varam	-9.12579
▁tezu	-9.12582
prApta	-9.12608
vikAr	-9.12672
▁karmaRA	-9.12681
mahI	-9.12712
dvAdaS	-9.12796
▁BUyaH	-9.12797
▁rAmaH	-9.12871
InAm	-9.12872
saMyog	-9.12918
dvA	-9.12955
▁devI	-9.12984
▁aD	-9.13002
ntam	-9.13094
▁Sakra	-9.13098
▁yasmAt	-9.131
Aj	-9.13116
dvijAH	-9.13123
samudr	-9.13254
tasmAd	-9.13502
InAM	-9.13509
odak	-9.13519
BAz	-9.13525
mud	-9.13536
AtmAnaM	-9.13549
yuktaH	-9.136
gatvA	-9.13722
gir	-9.13743
rAjy	-9.13772
▁vAsudeva	-9.13773
▁baBUva	-9.13824
janma	-9.13825
satyaM	-9.1391
devo	-9.13947
▁sutaH	-9.13987
stvaM	-9.13988
pArad	-9.14048
▁dAnam	-9.14064
nABi	-9.1416
pravftt	-9.14193
rAjya	-9.14246
▁jYAtvA	-9.14265
yU	-9.14347
GAt	-9.14347
lip	-9.14348
paYc	-9.14349
cet	-9.14417
ez	-9.14485
cEt	-9.14492
▁dvija	-9.14496
Iti	-9.14544
Binna	-9.14568
▁Sat	-9.14623
dviguR	-9.14663
lakzmaRa	-9.14669
▁anya	-9.14728
▁uktA	-9.1481
ovA	-9.1494
▁rog	-9.14991
DAva	-9.15024
zi	-9.15025
▁anyaH	-9.15035
Siva	-9.15094
sanAtanaH	-9.15122
aNk	-9.15214
▁duryoDana	-9.15224
kaT	-9.15346
durlaB	-9.15365
▁suKam	-9.15415
yaSca	-9.15434
SASvat	-9.15435
Sizw	-9.15468
Bukt	-9.15487
Basma	-9.15538
Mtu	-9.15675
▁mah	-9.15718
surA	-9.15727
▁BAva	-9.15764
tftIy	-9.1579
paw	-9.15845
kzetra	-9.15868
zya	-9.15938
▁tEH	-9.15939
izu	-9.15971
balaM	-9.16016
prad	-9.16089
praDAn	-9.16099
nimitt	-9.16102
tattva	-9.16162
▁mokza	-9.16299
yuDizWira	-9.163
mAtreRa	-9.16318
gni	-9.16344
priy	-9.1637
sUkzm	-9.16375
▁aBUt	-9.16435
sarga	-9.16441
▁paraH	-9.16469
tIrTaM	-9.16553
prayog	-9.16598
▁kroDa	-9.1662
SAnti	-9.16668
priye	-9.16675
banDa	-9.16678
dfzwi	-9.16717
▁dattvA	-9.16736
sita	-9.16771
gamya	-9.1685
Barat	-9.16873
BUzaR	-9.16883
▁gatim	-9.16905
maDu	-9.16928
vftta	-9.16929
puRya	-9.16994
ayo	-9.17001
varRa	-9.17018
catuH	-9.17073
jAnI	-9.17148
inA	-9.17157
▁gatiH	-9.17189
Gna	-9.17209
▁BImasena	-9.17252
jAH	-9.17282
nand	-9.17303
BUmi	-9.17306
vacaH	-9.17345
vAri	-9.17392
▁vayam	-9.17455
SrI	-9.17461
pAS	-9.17477
tAp	-9.17517
izyate	-9.17524
▁Soka	-9.17533
Suzk	-9.17544
praBuH	-9.17549
▁rakz	-9.17602
deveSa	-9.17653
nandana	-9.17659
▁SarIra	-9.17665
vyAD	-9.17705
candra	-9.17934
▁lakzaRam	-9.17934
yayO	-9.17964
paR	-9.17971
varDan	-9.18134
mUtr	-9.1819
hata	-9.18193
laB	-9.18259
▁janma	-9.18313
mUrti	-9.18494
ntar	-9.18533
Sc	-9.18572
▁Darmam	-9.18635
▁padma	-9.18641
budDyA	-9.18668
viSva	-9.18678
karza	-9.18727
yantr	-9.18727
nIl	-9.18776
▁om	-9.18807
vistar	-9.18839
kAriR	-9.18842
tIrTe	-9.18917
putrasya	-9.18935
▁sADu	-9.19016
nAga	-9.19052
mfd	-9.19053
praTam	-9.19055
SrutvA	-9.19057
sADy	-9.19089
yaSaH	-9.19166
mataH	-9.19179
▁kAlaH	-9.19192
janAH	-9.19225
▁mArkaRqeya	-9.19243
pravartate	-9.19267
DAraR	-9.19296
yuktaM	-9.19317
Atmaj	-9.19345
patnI	-9.19389
jam	-9.19404
Kar	-9.19436
aSv	-9.19509
▁hitam	-9.196
dadO	-9.19612
jYAna	-9.19626
BIma	-9.19668
SrAdD	-9.19757
dUr	-9.19786
SudDi	-9.19794
abravIt	-9.19939
▁Dan	-9.19966
pavan	-9.19995
dy	-9.20004
vAhan	-9.20014
mantra	-9.20027
▁devAnAm	-9.20131
▁anna	-9.20147
vAda	-9.20153
▁jvara	-9.20162
dfSyate	-9.20166
tv	-9.20204
tatrA	-9.20283
Sakra	-9.20319
▁rasaH	-9.20372
pAYcAl	-9.20463
svarg	-9.20476
priya	-9.20482
nArad	-9.20522
prakft	-9.2056
kftaH	-9.20568
vane	-9.20577
rudra	-9.20601
▁paSya	-9.20614
▁pArTiva	-9.20692
▁trayaH	-9.20702
jAn	-9.20714
ohi	-9.20792
BaratarzaBa	-9.20893
▁mfdu	-9.20915
kftsn	-9.20947
tapta	-9.20953
▁SIta	-9.20956
kavac	-9.21041
naraH	-9.21085
dvez	-9.21143
jala	-9.21179
sTir	-9.21306
sTitAH	-9.21333
BAra	-9.21361
▁dA	-9.21385
kzipet	-9.21388
dant	-9.2145
▁kawu	-9.21468
BAvAt	-9.21491
▁aSva	-9.21512
vidD	-9.21542
▁bAla	-9.21565
pARqu	-9.21671
yojy	-9.21755
aBi	-9.21755
Sva	-9.21789
bIj	-9.21837
▁Dana	-9.21861
▁kiM	-9.21897
ante	-9.21941
samarT	-9.21965
vastr	-9.22107
amevaca	-9.2213
▁puRya	-9.22134
stri	-9.22158
Ayaca	-9.22288
nna	-9.22318
By	-9.22385
pArTa	-9.22399
sarvAn	-9.22679
nava	-9.22767
▁budDiH	-9.22768
▁arhasi	-9.22874
grAm	-9.23012
jvalan	-9.23046
manye	-9.23093
pannag	-9.23096
snAt	-9.23113
varam	-9.23223
ByAm	-9.23296
sarpa	-9.23326
▁devam	-9.23369
▁arjunaH	-9.23415
nizW	-9.23482
kurvIta	-9.23487
gad	-9.23494
daRqa	-9.23497
samud	-9.2355
BUtam	-9.23551
pratyay	-9.23576
▁rAjYaH	-9.23579
hfzw	-9.23642
rzi	-9.23672
er	-9.23688
▁DftarAzwra	-9.23742
onAma	-9.23751
▁gaNgA	-9.23766
▁ante	-9.23828
enA	-9.23895
aRqa	-9.23919
mAm	-9.23933
Darmo	-9.23933
▁dEva	-9.23966
▁praBuH	-9.23976
devaM	-9.24006
▁varaH	-9.2401
janArdana	-9.24054
raRy	-9.2426
lokAn	-9.24277
niScit	-9.24359
tezu	-9.24437
mahe	-9.24485
▁indraH	-9.24493
cUrR	-9.2456
vraR	-9.24561
Asu	-9.24577
stasya	-9.24633
sakal	-9.24676
Darme	-9.2469
moh	-9.24738
mahAtmanAm	-9.24796
cint	-9.24818
muktA	-9.24837
aMtad	-9.24884
sADu	-9.24894
▁uttara	-9.24915
hema	-9.24967
ADipa	-9.24973
aRam	-9.24979
▁tAni	-9.25055
▁sTAnam	-9.25062
▁AyuH	-9.25074
aMprati	-9.25124
vadan	-9.25154
sen	-9.25163
vadanti	-9.25181
BAga	-9.25185
▁mahI	-9.25185
ivA	-9.25199
vaktr	-9.25228
SuSrUz	-9.25247
vartante	-9.25272
jIvati	-9.25312
▁indriya	-9.25401
▁jarA	-9.25426
▁df	-9.25456
kEH	-9.25474
▁BUtvA	-9.25509
ASraya	-9.25537
Dam	-9.25574
▁gaja	-9.25618
Kil	-9.2569
karRa	-9.25758
▁snAtvA	-9.2577
viS	-9.25775
Sayan	-9.25873
supt	-9.25888
▁divya	-9.25922
patra	-9.25937
rataH	-9.25976
▁loha	-9.25987
kurvan	-9.25991
kartavy	-9.25999
▁fzi	-9.26126
ravi	-9.26127
vimal	-9.26287
pU	-9.26311
Iya	-9.26355
devI	-9.26444
nAM	-9.26447
varaH	-9.26485
▁brahmaRaH	-9.26506
stava	-9.26541
yasyA	-9.26555
SIGr	-9.26594
▁dIrGa	-9.26612
▁vana	-9.26641
yogena	-9.26682
kzAr	-9.26704
▁kAlam	-9.26712
kuryAd	-9.26726
jAyante	-9.26741
nte	-9.27018
▁bali	-9.27026
uktaM	-9.27034
▁yuktam	-9.27035
sev	-9.27087
iRaH	-9.27101
Ananda	-9.27115
▁Ar	-9.27153
giri	-9.27198
devi	-9.27248
yogin	-9.27263
dey	-9.27265
aj	-9.27266
sAra	-9.27296
mukti	-9.27296
kaP	-9.27383
nAtra	-9.27389
tavyam	-9.27478
kuntI	-9.275
pakv	-9.27575
▁laGu	-9.2761
Bavad	-9.27672
▁mardayet	-9.27673
DarmaH	-9.27727
tapasA	-9.27762
▁arka	-9.27788
jIva	-9.2779
▁budDi	-9.27795
sarvaSaH	-9.27812
▁nAradaH	-9.27942
Mpra	-9.27998
taTEvaca	-9.28025
muhUrt	-9.28167
dve	-9.28173
kOrav	-9.28179
gacCanti	-9.28294
▁arDa	-9.28463
SAstra	-9.28522
▁sarvAH	-9.2855
praBo	-9.28554
lokasya	-9.28569
tEH	-9.28585
dAnaM	-9.28594
kAraRam	-9.28603
▁oM	-9.28666
laGu	-9.2869
kula	-9.28707
RaH	-9.2882
zva	-9.28844
▁Aditya	-9.28867
▁brUhi	-9.289
Boj	-9.28921
lpa	-9.28926
aMBavet	-9.2898
nidrA	-9.2899
▁mAyA	-9.29014
AyAm	-9.29064
niyat	-9.29082
dvija	-9.29092
vAcA	-9.291
prARAn	-9.29101
▁anyonya	-9.29154
yata	-9.2916
loB	-9.29203
Badra	-9.2922
gacCat	-9.29224
▁vajra	-9.29236
▁nArada	-9.29263
BUtAni	-9.29462
candan	-9.29656
kAzW	-9.29803
▁kazAya	-9.29809
purAtana	-9.29848
paTy	-9.29911
jAnAmi	-9.29912
rakza	-9.2993
jAnAti	-9.2996
prajYA	-9.2999
kzetr	-9.30049
BartA	-9.30112
▁puRyam	-9.30125
▁tejasA	-9.30193
▁vane	-9.30235
Un	-9.30244
spfS	-9.3027
▁anta	-9.3037
▁mAMsa	-9.30382
bravIt	-9.30386
Bar	-9.30413
dfzwa	-9.30419
▁mAtA	-9.30427
▁pARqavAH	-9.30559
▁prajA	-9.30567
Akza	-9.30616
▁Sastra	-9.30627
▁karoti	-9.30652
▁svarga	-9.30722
Agama	-9.30766
yogaH	-9.30863
hiMsA	-9.30907
▁bAl	-9.31181
aiti	-9.31197
BArgav	-9.31212
BUri	-9.31227
Sro	-9.31243
SaNk	-9.31265
vasu	-9.31286
manaH	-9.31359
vasan	-9.31375
drut	-9.31427
▁vESampAyana	-9.31455
nagar	-9.31476
gatAH	-9.31584
vimukt	-9.31587
▁siMha	-9.31613
jYAnaM	-9.31615
mahAtmA	-9.31645
Apa	-9.31664
ji	-9.31665
▁icCAmi	-9.31684
mokza	-9.31687
Satru	-9.31736
kzip	-9.3174
yuge	-9.31748
izyati	-9.31772
▁pApam	-9.31792
lokA	-9.31806
SItal	-9.31867
papAta	-9.31906
duhit	-9.31925
▁ekA	-9.31926
ind	-9.31935
kuRqal	-9.32041
kzit	-9.32045
kftya	-9.32046
kartA	-9.32057
▁vizRuH	-9.32063
Bag	-9.32096
pitAmahaH	-9.32114
cakra	-9.32157
AyA	-9.32189
▁kaTaM	-9.32198
svayaM	-9.32223
prApnoti	-9.32244
varDate	-9.32263
jAta	-9.323
devAn	-9.3236
Aca	-9.32363
▁so	-9.32419
▁vada	-9.32428
▁praBA	-9.32489
rasaH	-9.3264
divyaM	-9.32699
caret	-9.32777
tejasA	-9.32849
▁etad	-9.32863
▁parvata	-9.32886
▁pr	-9.32984
muKe	-9.33058
mAnavaH	-9.33094
varaM	-9.33115
dvijottama	-9.33136
devasya	-9.33162
ayor	-9.3317
BrAnt	-9.33201
▁kartum	-9.33264
hAra	-9.33266
BrAtA	-9.33306
stva	-9.33327
izW	-9.33359
▁kowi	-9.33366
rARAm	-9.33396
nut	-9.33426
▁SuBam	-9.33487
Erapi	-9.33496
▁vyAGra	-9.33519
vartamAn	-9.33588
pfTivI	-9.33631
proktA	-9.33651
nara	-9.33659
▁mitra	-9.33666
manyu	-9.33689
saNg	-9.33704
arha	-9.33768
▁hIna	-9.33807
atr	-9.33867
▁tIrTam	-9.33891
saMSay	-9.3393
kroDa	-9.3399
oBavet	-9.33998
nATa	-9.34002
jagmuH	-9.34091
samfdD	-9.34126
▁dAnava	-9.34223
▁zaw	-9.34325
▁BUtAni	-9.34331
▁maRqal	-9.34414
patim	-9.34423
zwam	-9.34461
Druv	-9.34547
aTA	-9.34562
priyA	-9.34617
matsy	-9.34639
manasA	-9.34648
hitaH	-9.34665
jagAma	-9.34672
paSy	-9.347
pUt	-9.34734
▁brAhmaRAH	-9.34789
nivftt	-9.34811
vidvAn	-9.34839
▁smftam	-9.34871
aNga	-9.34891
Hsarva	-9.34898
loh	-9.34914
darSanam	-9.34914
▁DftarAzwraH	-9.35003
▁SaNKa	-9.35024
kleS	-9.35074
prakAS	-9.35091
nye	-9.35113
sarvaBUt	-9.35172
▁vyAsa	-9.35212
sTiti	-9.35259
kanaka	-9.35335
vAsudev	-9.35424
tyajet	-9.35439
DaraH	-9.35459
▁tIkzRa	-9.35469
Any	-9.35489
▁putrAH	-9.35514
▁vaH	-9.35525
manyate	-9.35599
rEH	-9.35641
▁mUtra	-9.35671
▁maDyam	-9.35688
surAH	-9.35702
inam	-9.35794
mahAn	-9.3588
▁yuga	-9.35892
▁vAyuH	-9.35895
▁yuktaH	-9.35916
trA	-9.35958
idam	-9.36014
paro	-9.36043
rAjendra	-9.36066
karizy	-9.36152
balam	-9.36163
sADak	-9.36207
vyADi	-9.36207
▁ko	-9.36244
dAnena	-9.36255
Ut	-9.36292
kopa	-9.36305
▁sahasrARi	-9.36444
SApa	-9.36455
vizam	-9.36484
jarA	-9.36532
▁SrezWaH	-9.36553
puzkar	-9.36554
vyAGr	-9.36623
▁Gfta	-9.3665
ozR	-9.36689
locan	-9.36748
nigrah	-9.36758
AkASa	-9.36771
▁amita	-9.36832
gati	-9.369
Binn	-9.36982
BrA	-9.37051
ES	-9.37061
karizyAmi	-9.37117
Se	-9.37134
sTitA	-9.3716
▁sattva	-9.37177
rAjyaM	-9.3727
▁yudDam	-9.37272
▁citta	-9.37325
daM	-9.3733
▁cakra	-9.3734
▁jIva	-9.37342
DArmik	-9.37397
yur	-9.37406
▁vAnara	-9.37481
▁kArayet	-9.37504
jYaH	-9.37521
uM	-9.37526
hAr	-9.37548
▁kzIra	-9.37591
▁yasmin	-9.3764
pfT	-9.37759
▁antaH	-9.3785
▁suvarRa	-9.37873
hara	-9.37886
kila	-9.37889
▁vit	-9.37895
▁Sabda	-9.3792
mardan	-9.38005
rO	-9.38027
▁tan	-9.3803
aBAzata	-9.38057
viDIyate	-9.38062
Bezaj	-9.38064
uzw	-9.38083
gupt	-9.38101
▁sItA	-9.38124
kArayet	-9.38161
yaTAviDi	-9.38204
▁etAni	-9.38221
yaj	-9.38256
kurvanti	-9.38283
catur	-9.38298
hasan	-9.38312
BAve	-9.3835
AKyAn	-9.38355
krAnt	-9.38431
AtmajaH	-9.38514
caturT	-9.38525
▁dadarSa	-9.38634
dviviDa	-9.38671
kapi	-9.38683
tuly	-9.38694
grA	-9.38708
ISa	-9.38722
▁tIrTe	-9.38743
dAra	-9.38792
yojan	-9.38815
udyat	-9.38855
sfjat	-9.38886
tfpt	-9.39016
sUrya	-9.39037
smftaH	-9.39052
pavitr	-9.39118
sattv	-9.39131
▁manda	-9.39156
BavitA	-9.39168
yogAt	-9.39184
▁tAmra	-9.39188
BI	-9.39248
▁tulya	-9.39354
DyAn	-9.39489
vyasan	-9.39495
▁gadA	-9.39507
cintA	-9.39527
kAn	-9.39533
ramB	-9.39568
rakzasAm	-9.39629
maRi	-9.39634
samanvitaH	-9.39646
SAK	-9.39674
▁anyatra	-9.39697
do	-9.39722
pitAmah	-9.39789
▁liNga	-9.39808
gaH	-9.3982
rUpA	-9.39823
kowi	-9.39848
Sama	-9.39852
parasparam	-9.39904
nty	-9.39905
▁tezAM	-9.39927
▁tattva	-9.39961
bali	-9.39964
▁svA	-9.4
citra	-9.40001
▁Sakti	-9.40003
dIpana	-9.40053
▁vyADi	-9.40073
gacCa	-9.40162
stam	-9.40174
hiraRya	-9.40199
samaM	-9.40214
kzatra	-9.40313
kaTay	-9.40328
ezv	-9.4034
ci	-9.4036
praBAv	-9.40437
laBate	-9.4047
bAD	-9.40514
▁SilA	-9.40644
putrA	-9.40664
aNgul	-9.4067
cetas	-9.40679
pate	-9.40685
patat	-9.40718
▁garBa	-9.40736
vAkya	-9.40803
patan	-9.40866
▁vahni	-9.40949
Kal	-9.40953
dvitIya	-9.40987
▁putram	-9.41033
▁sTitaH	-9.41066
SAs	-9.41096
Ahave	-9.41141
EHsaha	-9.41142
▁asmAkam	-9.41146
gate	-9.41212
hu	-9.41332
parR	-9.41343
viSudD	-9.41362
soma	-9.41387
▁praDAna	-9.41408
▁AdAya	-9.41414
vAp	-9.41432
BayaM	-9.41481
mAtA	-9.41552
svarga	-9.41599
sampannA	-9.41621
▁devi	-9.41627
tfzRA	-9.41681
sahAy	-9.41689
samAgam	-9.41695
▁kalpa	-9.41709
▁annam	-9.41741
▁Satru	-9.41777
▁uzRa	-9.41807
jagad	-9.41837
▁samaH	-9.41882
▁dfSyate	-9.41899
Nga	-9.41924
mune	-9.41965
▁avi	-9.41973
nAnA	-9.41987
Apah	-9.4199
miti	-9.42005
▁itar	-9.42029
McA	-9.42054
▁kftaH	-9.42116
▁karRa	-9.42146
▁kaTA	-9.42165
rUpam	-9.42174
jaNgam	-9.42216
dattvA	-9.42223
▁sarvatra	-9.42297
viza	-9.42345
grAhya	-9.42346
rajas	-9.42379
keS	-9.42416
Mvi	-9.42428
▁uttama	-9.42657
▁pacet	-9.42695
pala	-9.42727
▁sAkzAt	-9.42818
▁tvayi	-9.42884
sTAne	-9.42917
icCasi	-9.42923
dadyAt	-9.42984
veSa	-9.43234
pOtr	-9.43266
pUrR	-9.43298
paraH	-9.43342
▁tikta	-9.43382
rakzaR	-9.43385
▁tasmE	-9.4339
prahfzw	-9.43393
vidyate	-9.43419
▁ambu	-9.43478
pataye	-9.43528
stan	-9.4355
Svet	-9.43572
tEr	-9.43605
vaman	-9.43667
yase	-9.4377
parigrah	-9.43785
samanvitam	-9.43861
arTa	-9.43923
kzara	-9.44012
nIt	-9.44025
anuttamam	-9.44034
▁sarvEH	-9.44066
AY	-9.44129
Dft	-9.44129
▁nIla	-9.44173
samAhitaH	-9.44225
muYca	-9.44329
pfcCat	-9.44332
▁kara	-9.4434
praBfti	-9.44361
rOdr	-9.4438
▁guruH	-9.44393
stad	-9.44395
arD	-9.44429
▁jAta	-9.44432
▁Sruti	-9.44467
▁tasyA	-9.44505
nAn	-9.44525
pac	-9.44532
uttar	-9.44535
nASanam	-9.44579
▁sarvaSaH	-9.44582
gataM	-9.44584
rUkz	-9.44638
nyaTA	-9.44678
putraH	-9.44692
vAt	-9.44702
▁vyAsaH	-9.44703
anIk	-9.4473
marut	-9.44737
mADava	-9.44815
yAca	-9.44823
cikits	-9.4487
vyAs	-9.44891
dAtavy	-9.4492
▁antare	-9.44926
mfga	-9.45118
▁mAsa	-9.45142
▁ezAm	-9.45206
cyut	-9.45222
jyA	-9.45321
kaSyap	-9.45413
zaq	-9.45418
Buvi	-9.45431
ArTe	-9.45453
kuzW	-9.45557
SUny	-9.45641
lamb	-9.45647
kAya	-9.45765
▁janArdana	-9.45792
patya	-9.46041
▁SrezWa	-9.46048
baBUva	-9.46051
upAy	-9.46092
tIr	-9.4611
candr	-9.46126
SiKar	-9.46142
po	-9.46148
▁Bfgu	-9.46163
kaPa	-9.46264
karo	-9.46351
▁gate	-9.46421
yeca	-9.46465
▁kila	-9.46488
▁tejaH	-9.46506
▁proktam	-9.4651
viparyay	-9.46512
vEzRav	-9.46512
▁kena	-9.46533
jajYe	-9.46556
kze	-9.46592
jYAnam	-9.46595
▁Srutam	-9.46607
parIkz	-9.46608
▁ASu	-9.46618
Bavizyasi	-9.46622
viBAg	-9.46633
hAs	-9.46636
▁rAGava	-9.46655
vyaktam	-9.4667
priyaH	-9.4674
mfta	-9.46749
sarit	-9.46758
kaTam	-9.46813
▁ahaM	-9.46901
itaM	-9.4703
itvA	-9.47042
muKaH	-9.47066
niSit	-9.47095
dik	-9.47112
▁tIrTa	-9.4714
▁Bayam	-9.47176
punaHpunaH	-9.47187
ADik	-9.47198
pOr	-9.47269
Antar	-9.47274
naGa	-9.47303
nena	-9.47336
▁gA	-9.47343
mftaM	-9.47346
▁dravya	-9.47372
enEva	-9.47397
sAma	-9.47403
sidDa	-9.47429
ny	-9.4748
▁jYaH	-9.47524
rasAyanam	-9.47621
Arh	-9.47621
SoDan	-9.47623
Bavizyanti	-9.47653
zazwi	-9.47656
▁kaTitam	-9.47697
Bakz	-9.47713
▁kzaya	-9.47767
pARqavAn	-9.47786
vAji	-9.47807
AMsi	-9.47824
▁vanam	-9.47829
karmasu	-9.4783
DAray	-9.47838
SravaR	-9.47839
▁dAha	-9.4785
▁pituH	-9.4786
alp	-9.47887
BAti	-9.47942
sahasrARi	-9.47981
Suk	-9.48008
karoti	-9.481
yuktam	-9.48117
gU	-9.48173
padma	-9.48177
▁sparSa	-9.48178
utpann	-9.4821
▁viSAm	-9.48235
dfSyante	-9.48243
▁nadI	-9.48327
vidur	-9.4834
madya	-9.48415
▁kasmAt	-9.48477
AsIt	-9.48514
tEla	-9.48526
vipra	-9.48594
nadI	-9.48597
mupa	-9.4861
pravftti	-9.48628
Sukr	-9.48636
▁giri	-9.48663
▁pfTivI	-9.48666
AdiBiH	-9.48682
▁guRAH	-9.48714
bil	-9.48751
▁pARqava	-9.48759
▁anaGa	-9.48777
dfS	-9.4878
kuS	-9.48786
stv	-9.48827
astasya	-9.48851
krUr	-9.48899
▁guREH	-9.48941
ByAM	-9.4897
dAna	-9.49011
yastu	-9.49033
▁viduH	-9.49147
Av	-9.49224
▁sarvezu	-9.49227
labDvA	-9.4928
durbal	-9.49305
▁uzR	-9.49317
▁bAhu	-9.49353
caran	-9.49373
ARica	-9.49386
hite	-9.49497
▁kurute	-9.49543
▁viSv	-9.49749
pARqavaH	-9.49771
kfp	-9.49791
▁SUdra	-9.49792
vfzwi	-9.49826
rakzit	-9.49845
puruzottama	-9.49899
tumul	-9.49899
▁bahavaH	-9.49931
mAtar	-9.49942
pumAn	-9.49946
niScayaH	-9.49957
vegena	-9.50005
pAtak	-9.50038
pAke	-9.5006
atAm	-9.50177
sahasA	-9.5029
kaR	-9.5031
yudDe	-9.50393
DAny	-9.50422
bravImi	-9.50442
lakzmI	-9.50462
yozit	-9.50543
▁mada	-9.50565
pAvak	-9.50623
itum	-9.50653
▁darSanam	-9.50654
▁laBate	-9.50655
tEl	-9.50731
Astra	-9.5078
yeva	-9.50788
vIry	-9.50838
▁pUjayet	-9.50891
odBav	-9.50893
▁ukta	-9.50939
BftAm	-9.50947
tAl	-9.50949
▁SivaH	-9.50964
▁anila	-9.50973
▁BaktyA	-9.5098
nopa	-9.50984
▁narmadA	-9.50987
rUpaH	-9.50993
▁vESy	-9.50998
BAskar	-9.51001
bindu	-9.51019
▁viDiH	-9.51036
▁fzaya	-9.5104
samast	-9.51065
dvijasattama	-9.51112
Gan	-9.51174
▁mftyu	-9.51191
▁vasu	-9.51288
kriy	-9.51289
vIrya	-9.51347
guRam	-9.51363
mita	-9.514
▁uttaram	-9.5141
sItA	-9.51416
▁Baya	-9.51429
kaTitaM	-9.51445
▁kartA	-9.51467
▁karam	-9.51467
matam	-9.51502
▁svarRa	-9.51504
▁manye	-9.51531
janam	-9.51567
▁uzRam	-9.51584
endriy	-9.51589
snAtvA	-9.51628
puzwi	-9.51774
taraM	-9.51824
kva	-9.51839
▁gaRa	-9.51849
pArTiva	-9.51868
jane	-9.51871
Mhi	-9.51956
diti	-9.51984
▁AhAra	-9.52024
mAtf	-9.52073
▁cakAra	-9.52076
darS	-9.52081
▁vikrama	-9.5212
mAyA	-9.5215
rAtrO	-9.52178
til	-9.52206
▁jIvitam	-9.52216
▁lavaRa	-9.52265
▁nava	-9.52281
DarmA	-9.52344
yuvA	-9.52375
bruv	-9.52413
Era	-9.52428
yAvad	-9.52441
gocar	-9.52496
RAM	-9.5259
▁hariH	-9.52591
▁sarvARi	-9.52675
viSizw	-9.52715
mfdu	-9.52787
haraR	-9.52848
kArya	-9.52895
▁AtmanA	-9.529
jaya	-9.53012
BaktyA	-9.53019
brAhmaRa	-9.53102
▁vrat	-9.53119
▁rAjAnam	-9.53166
▁yuDizWiraH	-9.53239
Bagn	-9.53317
▁purARa	-9.53348
pUjA	-9.53355
dadAti	-9.53357
▁kAl	-9.53373
priyam	-9.53404
karaRam	-9.53408
pUjy	-9.53453
▁yAti	-9.53476
Soca	-9.535
▁matiH	-9.53507
▁Sukla	-9.5351
ezAM	-9.53582
▁Asan	-9.53587
tapasvin	-9.53595
▁kartavyam	-9.53599
rAmeRa	-9.5365
rAj	-9.53757
yezAM	-9.53761
▁dEtya	-9.5377
▁j	-9.53792
nAT	-9.53797
astadA	-9.5388
senA	-9.53919
prARa	-9.5394
Gaw	-9.53957
AMs	-9.53997
▁jita	-9.54028
varRA	-9.54032
kupit	-9.5406
▁SUla	-9.54073
▁sidDi	-9.54082
▁gacCati	-9.54106
▁brahm	-9.54114
ratA	-9.54149
nakzatr	-9.54176
▁lokezu	-9.54211
yAtrA	-9.54213
yujyate	-9.5422
ase	-9.5432
vajra	-9.54331
devatAH	-9.54352
sugrIv	-9.54487
DUm	-9.54508
devena	-9.54511
parityajya	-9.54537
brahmacArI	-9.5454
sTAnaM	-9.54548
Goz	-9.54565
▁amftam	-9.5457
upAs	-9.54626
dattA	-9.54696
lokaM	-9.5472
mAlA	-9.54747
▁arhati	-9.54757
priyaM	-9.54792
mahad	-9.54806
Sukl	-9.54813
sarvadA	-9.54962
Sit	-9.54989
▁arjun	-9.55029
prasann	-9.55037
uttamA	-9.55061
kzaye	-9.55084
mAnaM	-9.55133
▁fte	-9.55159
ratn	-9.55167
divyA	-9.55286
▁praBo	-9.55346
SataM	-9.55392
▁yudDe	-9.55409
▁roga	-9.55472
SoRit	-9.55497
▁trayam	-9.555
▁haram	-9.55581
▁yakza	-9.55587
▁sUkzma	-9.55641
haret	-9.55641
pitr	-9.55646
balI	-9.55669
brAhm	-9.557
divAkar	-9.55716
skanD	-9.55737
▁SOnaka	-9.55737
pOruz	-9.55737
rasAyane	-9.55742
Sara	-9.55767
kumBa	-9.55794
vahni	-9.55813
vasizW	-9.55842
yogI	-9.55856
pramatt	-9.55922
▁SaraRam	-9.55934
▁snigDa	-9.55951
mapi	-9.56041
▁dinam	-9.56061
padam	-9.56095
vasat	-9.56116
sTa	-9.56146
▁matsya	-9.56192
▁hata	-9.56238
cAra	-9.56272
guRAn	-9.56282
kfte	-9.56325
Atmani	-9.5634
varjayet	-9.56384
SaNK	-9.56398
▁priyam	-9.5642
taram	-9.56527
divya	-9.56532
Ahur	-9.56553
tArak	-9.56555
amar	-9.56575
bravId	-9.56617
▁SarEH	-9.56646
brahman	-9.56648
▁rajaH	-9.56686
Sruti	-9.56791
Atman	-9.56799
rUpeRa	-9.56806
SuBe	-9.5684
mAnA	-9.56843
▁SuBa	-9.56878
▁izwa	-9.56887
▁viDinA	-9.56903
▁kzatra	-9.56916
patir	-9.56943
aMkftvA	-9.56995
prasidD	-9.57028
sanAtanam	-9.57036
tapa	-9.57046
asyApi	-9.57053
paScim	-9.57161
tanay	-9.57173
Ev	-9.57253
pravakzyAmi	-9.5726
sved	-9.57329
Sil	-9.57372
pUjan	-9.5738
vakzyAmi	-9.57391
Es	-9.57399
darSanAt	-9.57408
▁ratna	-9.57414
▁mayi	-9.57416
roga	-9.57425
pAcan	-9.57459
mAnaH	-9.57566
▁lomaSa	-9.57567
kriyate	-9.576
hate	-9.57603
kusum	-9.57606
tf	-9.57631
aMdfzwvA	-9.57665
▁imAm	-9.57685
▁sarvA	-9.57753
datte	-9.5781
laByate	-9.57835
▁vaktum	-9.5787
sattva	-9.57964
▁pUjA	-9.57983
kzep	-9.58014
eko	-9.58038
sparS	-9.58051
prasT	-9.5806
ruci	-9.58073
▁tyaktvA	-9.58077
divi	-9.5808
eSvaraH	-9.58119
kilbiz	-9.58184
maDusUdana	-9.58185
vyavahAr	-9.58186
viSAMpat	-9.58187
kaRwak	-9.58201
gatiH	-9.58275
puRyaM	-9.58276
udit	-9.583
Msarva	-9.58301
▁SabdaH	-9.58314
snAna	-9.58315
trayam	-9.58336
kroS	-9.58363
▁vfdDa	-9.58366
pARq	-9.58399
MvA	-9.58472
viduH	-9.58519
ezva	-9.58556
AstaTA	-9.58579
vimAn	-9.58601
tanu	-9.58625
McEva	-9.58636
majj	-9.58677
kovid	-9.58715
▁sattvam	-9.58779
mBa	-9.58832
tIvra	-9.58892
daSaraT	-9.58934
SiSir	-9.58935
vasant	-9.58941
▁mahatA	-9.58989
Astu	-9.5899
ito	-9.59001
matiH	-9.59038
ketu	-9.59045
daS	-9.59052
▁senA	-9.59074
nasaMSaya	-9.59117
cCed	-9.59168
mAhAtmy	-9.59275
BAzitam	-9.59306
ugr	-9.59309
mudit	-9.5937
ARAMca	-9.594
hutASan	-9.5943
▁yayAtiH	-9.59432
ganDa	-9.59464
kAraRaM	-9.59525
vfdDi	-9.59536
lep	-9.59581
manyase	-9.59594
UnAm	-9.5965
meru	-9.5969
nind	-9.59711
viKyAta	-9.59746
tacca	-9.59797
karmaRaH	-9.59875
gacCet	-9.59947
veDa	-9.5995
yor	-9.59953
▁svam	-9.59987
devyA	-9.59995
striya	-9.59999
DanaM	-9.60005
smE	-9.60029
Bizak	-9.60059
kuYjar	-9.60069
tU	-9.60078
▁hanti	-9.6008
▁kalA	-9.60099
▁mayam	-9.60109
▁syuH	-9.60142
▁keSava	-9.60196
svapna	-9.60273
BAvi	-9.60304
bruvan	-9.60314
▁uc	-9.60316
vasA	-9.60377
vada	-9.60384
devadeva	-9.60392
Ahu	-9.60415
▁duryoDanaH	-9.60434
bahuDA	-9.60467
vAk	-9.60506
▁devatA	-9.60535
vAky	-9.60582
bfhaspati	-9.60594
▁vIrya	-9.60596
pattra	-9.60614
praBav	-9.60622
Dfzwadyumn	-9.60692
prayojan	-9.60694
dal	-9.60694
dig	-9.60697
Danam	-9.60703
kr	-9.60707
rUpARi	-9.60763
▁Aga	-9.60848
vAhanaH	-9.60907
yukto	-9.60948
pak	-9.61016
▁maRi	-9.61064
karaM	-9.61096
Arta	-9.61114
hatA	-9.61152
kop	-9.61183
rasA	-9.61249
orAjA	-9.6125
▁BUmO	-9.61263
DAt	-9.61263
vidDi	-9.61271
tApas	-9.6129
aSnute	-9.6133
▁praTama	-9.61374
vivyADa	-9.61386
samprApta	-9.61431
provAca	-9.61471
tikta	-9.6167
jagrAha	-9.61695
suta	-9.61696
cakzuzA	-9.61746
nAti	-9.61763
DAtA	-9.61789
mayaM	-9.61799
▁hita	-9.61808
▁pratijYA	-9.61809
gulm	-9.61815
durga	-9.61821
brUhi	-9.61936
▁tayA	-9.61936
mAly	-9.61957
stut	-9.61998
▁muniH	-9.62004
Badre	-9.62013
niSA	-9.62023
guq	-9.62051
samyag	-9.62087
tapaH	-9.62114
vanam	-9.62135
paraspara	-9.62242
dadyAd	-9.62249
▁paSu	-9.6227
AcAry	-9.62277
▁AgataH	-9.62363
▁gatAH	-9.62449
tyakt	-9.62475
tAla	-9.62547
▁aMSa	-9.6258
DarmAtmA	-9.62586
puwa	-9.6261
guRA	-9.62617
▁taM	-9.62661
banDaH	-9.62682
▁sadyaH	-9.6269
tAram	-9.62714
opet	-9.62736
ASva	-9.62794
▁pibet	-9.62838
▁dvO	-9.62859
tAvad	-9.62909
▁gacCa	-9.62919
meG	-9.6304
loha	-9.63051
ArD	-9.63073
dIrG	-9.6309
ktam	-9.63123
nindit	-9.63131
▁aTA	-9.63134
▁pate	-9.63176
smftA	-9.6322
tIrTAni	-9.63257
Suc	-9.63321
stamBa	-9.63345
sutaH	-9.63351
BUtA	-9.63351
ire	-9.63363
havya	-9.63372
▁man	-9.63467
SoDanam	-9.63493
tavyaM	-9.63582
pApaM	-9.63647
▁saBA	-9.63726
▁AcArya	-9.63736
aMyaTA	-9.63757
mati	-9.63758
Bfty	-9.6379
vApya	-9.63792
DaraR	-9.63891
proktaM	-9.6393
praSasyate	-9.63952
▁pitAmaha	-9.64034
niB	-9.64107
▁adButam	-9.64149
▁drazwum	-9.64168
kANkz	-9.64175
putreRa	-9.64216
Bayam	-9.64297
dviza	-9.64337
▁smftAH	-9.64339
▁UrDva	-9.64364
Srav	-9.64396
sUtr	-9.64439
nanda	-9.64465
sEnDav	-9.6453
▁droRaH	-9.6454
BARq	-9.64543
BrAtf	-9.64547
viroD	-9.6455
AhuH	-9.64634
▁mala	-9.64638
maT	-9.64642
Nka	-9.64727
▁sveda	-9.64727
sAhasr	-9.64729
Ngiras	-9.64738
sTitam	-9.64833
▁kOnteya	-9.64837
▁vartate	-9.64851
mAnavAH	-9.64874
kAlaM	-9.6488
iRAm	-9.64937
vayaM	-9.64955
▁anuttamam	-9.6496
tacC	-9.65092
smaran	-9.65102
kAraH	-9.65213
raTaH	-9.65232
SAli	-9.65248
ArTam	-9.6525
AtmAnam	-9.65295
▁SreyaH	-9.6532
Baja	-9.65409
Eka	-9.65419
sAmAnya	-9.65432
Akul	-9.65446
▁arjuna	-9.65464
▁striyaH	-9.6547
tizWat	-9.65515
mahABAga	-9.65529
vikalp	-9.65555
mUrt	-9.65614
varAh	-9.65706
garBa	-9.65724
pUr	-9.65848
hfdy	-9.65872
▁mUlam	-9.65901
Say	-9.65902
piSAc	-9.65934
Kalu	-9.65934
▁ugra	-9.66021
parameSvara	-9.6604
kzudr	-9.66054
bahuviD	-9.66054
▁Slezma	-9.66074
pro	-9.66164
▁Kalu	-9.66165
virudD	-9.66179
narendr	-9.66191
brAhmaRA	-9.66206
sparSa	-9.6622
tvarit	-9.66266
▁yAni	-9.66344
▁SiraH	-9.66376
dAnt	-9.66431
dEvata	-9.66434
ine	-9.66459
rAtri	-9.66471
pfzwa	-9.66544
nfSaMs	-9.66561
maD	-9.66562
hare	-9.6657
plut	-9.66576
yuzmA	-9.66584
ARy	-9.66602
yEva	-9.66621
BUtAnAM	-9.66648
kfS	-9.66711
pivA	-9.66717
▁sahitaH	-9.66757
utpatti	-9.66766
BUtaM	-9.66787
sAhas	-9.66797
▁rUkza	-9.66854
nakul	-9.6686
laNkA	-9.66895
▁vfdDi	-9.66934
AScarya	-9.66942
pIta	-9.66965
jantu	-9.66965
▁SuciH	-9.66985
asti	-9.67039
mAtr	-9.67147
▁mU	-9.67155
svar	-9.67162
▁SrezWam	-9.67201
devaH	-9.67202
eyam	-9.67232
gamizyAmi	-9.67251
banDan	-9.67264
niSAcar	-9.67288
▁vfza	-9.67318
padyate	-9.67333
▁vizRoH	-9.67343
stena	-9.67377
caraR	-9.67447
▁tvad	-9.67457
▁tizWa	-9.67471
suKam	-9.67514
▁tila	-9.67536
sADana	-9.67558
▁tAra	-9.67701
▁agra	-9.67708
▁kfte	-9.67746
rAw	-9.6781
prekz	-9.679
▁apare	-9.67907
pratyakz	-9.6792
saBA	-9.67924
ASI	-9.67959
drakzy	-9.67967
miva	-9.68016
▁suK	-9.68032
▁tale	-9.6806
AyanamaH	-9.68095
kawu	-9.68102
kalk	-9.6811
Ek	-9.68203
oyaTA	-9.68217
kawuk	-9.68247
DAriR	-9.68288
prekzya	-9.68341
▁hasta	-9.68382
haraM	-9.68397
▁pravakzyAmi	-9.68432
sTaM	-9.68435
yaMca	-9.68461
itAH	-9.68501
rasena	-9.68516
▁Srotum	-9.68604
rudDvA	-9.68623
▁aDipa	-9.68628
▁sarvaTA	-9.68633
Oca	-9.68698
kaTyate	-9.68713
BUmO	-9.68721
▁vftaH	-9.68732
hom	-9.6878
staTEvaca	-9.68785
▁cUrRam	-9.68859
manA	-9.68861
▁muKa	-9.68888
▁upari	-9.68896
imaM	-9.68904
agni	-9.68905
yuYj	-9.68925
ratnAni	-9.68961
guhy	-9.69059
SArdUla	-9.69169
BAvena	-9.69337
▁sTaH	-9.69385
mahAtmAnaH	-9.694
▁gfhItvA	-9.69407
datt	-9.69433
samIpa	-9.6945
kamp	-9.69452
▁ISAn	-9.69483
kzatriya	-9.69501
tuz	-9.69526
tIrTam	-9.69541
Ante	-9.69553
SfR	-9.69555
plav	-9.69582
kOravya	-9.69651
mAnena	-9.69689
▁mArga	-9.69716
tIrTa	-9.69742
▁krudDaH	-9.69763
bd	-9.69765
▁jAtaH	-9.69793
▁Goram	-9.69815
▁janamejaya	-9.6986
▁vakzyAmi	-9.69974
BaradvAj	-9.70001
drupada	-9.70011
raSmi	-9.70023
BAskara	-9.70031
AyAM	-9.70115
kali	-9.70165
▁Buvi	-9.70224
yOvana	-9.70297
▁sidDim	-9.70297
pradAn	-9.703
samIkz	-9.70314
mamA	-9.70331
budDir	-9.70339
KaRq	-9.70343
prajAyate	-9.70377
vartata	-9.70431
▁SArdUla	-9.70446
dravat	-9.70451
puruzA	-9.70528
samutpann	-9.70539
jAtA	-9.7055
▁DyAna	-9.70552
paSu	-9.70568
▁uttamaH	-9.70588
kOnteya	-9.7062
▁prajAH	-9.70632
BArat	-9.70653
samBUt	-9.70674
▁muKam	-9.70701
▁yezAm	-9.7071
zoqaS	-9.7076
▁trElokya	-9.70764
dAha	-9.70776
▁vidDi	-9.70896
dAy	-9.70928
pARqavA	-9.70945
laBet	-9.70949
▁sidDiH	-9.71045
rAjYo	-9.71098
tiTi	-9.71105
SaraR	-9.71174
aYjana	-9.71202
paramA	-9.71215
nirvft	-9.71362
▁sAgara	-9.71381
sTAvar	-9.71437
▁dAna	-9.71491
tulya	-9.71492
jAgar	-9.71531
▁antara	-9.71556
▁SIla	-9.71601
pramAd	-9.71617
rucy	-9.71617
jawA	-9.71705
cyuta	-9.71728
jin	-9.7175
▁DAnya	-9.71758
SaraRaM	-9.71808
▁kAYcanam	-9.71826
vAsinaH	-9.71941
gOr	-9.71955
viq	-9.71959
parayA	-9.71961
yacca	-9.7197
▁bIjam	-9.72012
nirmal	-9.72087
niDi	-9.72103
rocate	-9.72129
Palgun	-9.72154
▁cakzuH	-9.72168
jo	-9.72177
devAnAM	-9.72177
vizAd	-9.72257
krIq	-9.7227
▁Salya	-9.72288
dIyate	-9.7238
▁SoRita	-9.72403
saraH	-9.72473
nacA	-9.72634
▁ekena	-9.72643
tasmAt	-9.72683
sugrIva	-9.72684
vad	-9.72781
yamAnaH	-9.72851
▁Danam	-9.72863
Arogya	-9.7291
vivAh	-9.72916
gato	-9.72968
▁sTam	-9.73006
sTam	-9.7302
varzARi	-9.73028
vijYAya	-9.73058
mahatA	-9.73065
yEr	-9.73073
koSa	-9.73089
varcas	-9.73107
▁trizu	-9.73113
Buvan	-9.73119
Dfti	-9.73126
kuryA	-9.73169
ave	-9.73173
▁prItaH	-9.73258
nAyak	-9.73339
toya	-9.73343
yuDizWiraH	-9.73367
▁diSaH	-9.73368
darSin	-9.73375
▁dattam	-9.73387
gal	-9.73608
hay	-9.73653
staM	-9.73656
mahIpatiH	-9.73741
▁kAmaH	-9.73933
▁hatvA	-9.73943
pica	-9.7395
▁ime	-9.73976
rasendra	-9.74022
▁kaTaya	-9.74171
▁nAmnA	-9.74186
siDyati	-9.74272
vAraR	-9.7431
prAptam	-9.74314
BUtvA	-9.74329
▁piRqa	-9.74433
maheSvaraH	-9.74468
rocana	-9.74478
ccA	-9.74582
ripu	-9.74611
▁namo	-9.74618
▁svAdu	-9.74647
mudA	-9.74649
▁sarvadA	-9.7469
svaBAv	-9.74696
dehe	-9.74752
putraM	-9.74783
boD	-9.7482
ekaM	-9.75066
samBavaH	-9.75076
DarmaM	-9.7508
▁maheSvaraH	-9.75087
bak	-9.7509
Alayam	-9.75133
kfz	-9.75234
karizyati	-9.75264
vAkyam	-9.75279
▁pitAmahaH	-9.75289
prAha	-9.75333
tizWanti	-9.75382
viGn	-9.7545
▁pfTivIm	-9.75467
▁japa	-9.75471
viDinA	-9.75472
raso	-9.75484
vaSI	-9.75492
aSc	-9.75496
▁mahAdevaH	-9.75509
sarvARi	-9.75582
tyaktvA	-9.75601
pARqava	-9.7568
izyasi	-9.75688
▁puRyA	-9.757
aDIyata	-9.75743
jihvA	-9.75746
tatrEva	-9.75781
▁rUpeRa	-9.75783
▁dakziRA	-9.75816
▁pratyakza	-9.7582
sIdati	-9.75832
▁jAti	-9.75833
AdyA	-9.75938
▁cakre	-9.75971
▁miTyA	-9.7604
tasy	-9.76078
suDA	-9.76117
mAtrA	-9.76148
▁SakraH	-9.76257
pravar	-9.763
▁asura	-9.7632
▁ftu	-9.76412
trEloky	-9.7647
sarvatra	-9.76488
puruzaH	-9.76499
muRq	-9.76502
udak	-9.76519
▁yogena	-9.76536
catvAr	-9.76607
▁prAha	-9.76637
▁caturTa	-9.76668
patti	-9.76709
Byo	-9.76758
cApa	-9.7676
pakzi	-9.76823
▁tAH	-9.76863
vijYAna	-9.76874
ASu	-9.76929
kAryam	-9.76964
prayatnena	-9.76991
Arti	-9.77039
▁rAmasya	-9.77069
duzkar	-9.77225
cApya	-9.77238
▁tuByam	-9.77249
nirguR	-9.77252
dvijottamA	-9.77261
SayyA	-9.77274
▁mAtrA	-9.77277
▁vrata	-9.77416
▁Bojana	-9.77486
▁virAwa	-9.77517
suKI	-9.77573
gnir	-9.77583
yukta	-9.776
▁nimitta	-9.77606
oBavati	-9.77741
▁kAlena	-9.77777
jIvan	-9.77815
Cand	-9.77868
▁anva	-9.77887
Est	-9.77888
padaM	-9.77909
▁sTitam	-9.77922
yudDaM	-9.77948
smAkaM	-9.77983
roD	-9.77983
▁manuH	-9.77987
patitA	-9.78076
pAdap	-9.78087
▁lakzaRa	-9.7809
saMskAra	-9.78131
prayat	-9.78157
Asanam	-9.78197
▁nAma	-9.78222
DIt	-9.78335
▁vaMSa	-9.78336
oktaM	-9.78376
naKa	-9.7843
tvayi	-9.78523
maheSvaram	-9.78531
kAnti	-9.78553
rahit	-9.78555
▁rAGavaH	-9.78579
tattv	-9.78609
keSa	-9.78642
gacC	-9.7871
carma	-9.78716
Asana	-9.7873
▁muhuH	-9.78734
▁pfTivyAm	-9.78734
▁pakza	-9.78744
tatsarvaM	-9.78882
▁BUtezu	-9.78927
▁rAga	-9.78932
kUwa	-9.78953
rUpya	-9.78954
▁hataH	-9.78972
SUl	-9.79004
sTe	-9.79048
▁pramARam	-9.79111
cEvA	-9.79168
nAsA	-9.79185
sUda	-9.79197
lohit	-9.7922
ohya	-9.79234
▁vAsudevaH	-9.7924
▁rAjAnaH	-9.79263
▁rasam	-9.79296
ratna	-9.79401
Saly	-9.79471
mahAtma	-9.7951
lakza	-9.79592
cacAra	-9.79603
▁munayaH	-9.79625
eSvaram	-9.79631
▁aparam	-9.79676
kAraRAt	-9.79695
latA	-9.79831
gotr	-9.79844
vAsA	-9.79927
boDa	-9.80001
yona	-9.80032
vadat	-9.80053
tizWan	-9.80101
rzaB	-9.80113
vijYeya	-9.8018
kozW	-9.80266
▁avApnoti	-9.80267
duzkft	-9.80269
Antare	-9.80284
▁aBra	-9.80286
vasati	-9.803
▁rAmam	-9.80382
svAhA	-9.80402
gOrav	-9.80459
ojas	-9.80486
▁Sva	-9.80531
▁Agatam	-9.80586
navidyate	-9.80598
las	-9.80746
▁sUryaH	-9.80776
kurvAR	-9.8081
▁kuzWa	-9.80836
▁triBiH	-9.8089
Adeva	-9.80903
Akfti	-9.80923
vAdI	-9.80986
kftavAn	-9.8101
▁kzamA	-9.81029
tacCrutvA	-9.81042
icCati	-9.81083
AyuzaH	-9.81157
▁pitaram	-9.81205
▁prAptaH	-9.81216
▁lokaH	-9.81239
▁kAnta	-9.81337
buDaH	-9.81342
kartavyaM	-9.81394
dUt	-9.81467
hiMs	-9.81497
▁rAkzasAH	-9.81573
yete	-9.81655
syAn	-9.81657
kaRWa	-9.81708
prasaNg	-9.8177
SrAnt	-9.81829
hetoH	-9.81833
paSUn	-9.81901
viparIt	-9.81902
mAnav	-9.81963
▁aja	-9.82073
prApnu	-9.82119
dehi	-9.8216
maBi	-9.82194
▁kule	-9.82238
kAryA	-9.82257
evaMviD	-9.82304
devatA	-9.82353
▁mAtram	-9.82401
vicitr	-9.82453
varA	-9.82509
taMdfzwvA	-9.82521
Sveta	-9.82564
huta	-9.82577
varjitaH	-9.82621
pratizWA	-9.82634
pattr	-9.82639
Darmam	-9.82658
veSma	-9.82668
endriya	-9.82678
dehinAm	-9.82687
jja	-9.82753
▁avApnuy	-9.82764
pacet	-9.82788
▁svargam	-9.82836
vayas	-9.82885
gaNgA	-9.82954
stat	-9.82955
muktvA	-9.82998
▁dvijaH	-9.83178
kapAl	-9.83189
pAlan	-9.83246
KAd	-9.83331
▁nUnam	-9.83404
kriyatAm	-9.83428
▁tamaH	-9.83454
raktA	-9.83493
▁vizaya	-9.83551
▁netra	-9.83558
▁Ap	-9.83572
jYAtvA	-9.83576
adBut	-9.83636
Iyam	-9.83656
▁sve	-9.83666
mARaH	-9.83723
▁AcAra	-9.83736
samudBav	-9.83752
▁gatam	-9.83872
▁karRaH	-9.83942
sAtyaki	-9.84019
aMmahat	-9.84021
▁agn	-9.84077
▁kumAra	-9.84114
prAptA	-9.84142
vIta	-9.84166
purIz	-9.84205
jayadraTa	-9.84209
Ariza	-9.84248
ottara	-9.8427
kamal	-9.84326
pitAmaha	-9.8436
▁nahi	-9.84374
dIrGa	-9.84388
▁avyayam	-9.84409
kanda	-9.84445
▁jIvan	-9.84533
vinASAya	-9.84661
mardayet	-9.84711
lak	-9.84746
aHsmftaH	-9.84746
pARqur	-9.84792
▁SuBA	-9.84813
vajr	-9.84814
aMnAma	-9.84816
kfzw	-9.84882
dinam	-9.849
SrUyate	-9.85011
samADi	-9.85015
parAyaRA	-9.85015
kASyap	-9.85019
paruz	-9.85019
sAraTi	-9.85037
▁liNgam	-9.85075
Srutam	-9.85086
hrad	-9.85126
▁pitaraH	-9.85138
AScEva	-9.8514
kAryARi	-9.85168
▁catvAraH	-9.8519
▁dizwyA	-9.85236
kaTA	-9.85261
gAmi	-9.85267
▁avaDy	-9.85307
pateH	-9.8534
varmA	-9.85396
OzaDam	-9.85431
Asan	-9.85529
rAjAnaM	-9.85578
Slezma	-9.85617
▁lokAH	-9.85633
▁hatA	-9.85685
▁vidyAt	-9.8571
vigraha	-9.85731
ESvarya	-9.85733
▁viviDAni	-9.85734
▁patiH	-9.85779
▁antaram	-9.85795
sfYjay	-9.85823
pAzAR	-9.85828
tayA	-9.85831
▁apA	-9.85834
paRqita	-9.8584
kalA	-9.85886
tasmE	-9.85902
pratijYA	-9.86033
pitAmaham	-9.8613
▁vIraH	-9.86151
indra	-9.86162
dBiH	-9.86168
manya	-9.86245
sattvaM	-9.86252
antya	-9.86281
▁dozaH	-9.8632
grIv	-9.86416
triguR	-9.86453
roz	-9.86511
▁guRAn	-9.86537
zazW	-9.86554
yASca	-9.86623
jAtu	-9.86645
kUrma	-9.86646
Sibi	-9.86686
tejasvI	-9.86706
▁avyaktam	-9.8673
▁DanuH	-9.86755
vErAgy	-9.86819
▁aneka	-9.86837
dattaM	-9.86866
▁AdyAH	-9.86997
avyay	-9.86999
mahiz	-9.8704
dAyAd	-9.87042
kfpaR	-9.87095
▁vasizWa	-9.8711
tAmra	-9.8721
paryAy	-9.87211
vedA	-9.87224
rTaM	-9.87236
miSr	-9.87273
mantreRa	-9.8731
▁sarvasya	-9.87347
▁viSeza	-9.87398
pAvaka	-9.8741
praSast	-9.87433
▁tElam	-9.87449
manIziRaH	-9.87469
▁Beda	-9.87469
jaGAna	-9.8747
suyoDana	-9.87481
▁AdyEH	-9.875
nAqI	-9.87502
▁uta	-9.87515
saMvatsar	-9.87516
Baya	-9.87558
mahIpate	-9.87619
catuzwayam	-9.87724
ezAm	-9.87736
DarmArTa	-9.8774
sarvaBUtAnAM	-9.87836
nikft	-9.87853
dAsa	-9.87901
Bavizya	-9.87927
vEdy	-9.8794
ASrayA	-9.87947
Bakzy	-9.87954
icCAmi	-9.88068
narak	-9.88069
samI	-9.88083
yaSasvin	-9.88124
BUzaRam	-9.88154
trAR	-9.88162
ityarTaH	-9.8822
padeS	-9.88268
sAttvik	-9.88303
lalAw	-9.88303
vfkodar	-9.88304
raTe	-9.88318
Siro	-9.88346
aDyAtma	-9.88353
▁lokAnAm	-9.88395
saciv	-9.88408
pratigfhya	-9.88417
praBA	-9.88452
sahasrAkz	-9.8848
tfR	-9.8848
viSv	-9.88497
SUla	-9.88636
Sakuni	-9.88674
SoB	-9.8868
▁puruzam	-9.88702
yoge	-9.88706
▁gaRAH	-9.88742
ruDir	-9.88756
anyEH	-9.88759
▁tattvam	-9.88788
vinIt	-9.88815
moG	-9.88832
ArtA	-9.88843
dAh	-9.88854
SilA	-9.88885
▁vfkza	-9.88903
gfhasT	-9.88925
tayor	-9.88997
yayuH	-9.89087
▁SaktiH	-9.89108
Antara	-9.8911
nyaset	-9.89145
BErava	-9.89183
▁yudDa	-9.89233
▁BayAt	-9.89269
▁duzwa	-9.89269
▁dina	-9.89287
▁amAty	-9.89389
kaTitA	-9.89449
▁aT	-9.89475
▁janamejayaH	-9.89573
▁SEla	-9.89622
▁karmaRAm	-9.89652
bu	-9.8967
▁bahuBiH	-9.89685
jYAti	-9.89821
mantriR	-9.89861
▁samudra	-9.89929
BErav	-9.89984
vikrAnt	-9.8999
mETun	-9.8999
lAGav	-9.89991
manvantar	-9.89992
▁BavataH	-9.89993
kvAT	-9.90026
yUTap	-9.90029
viSrutaH	-9.90043
▁niyata	-9.90043
▁rudraH	-9.90118
mayi	-9.9021
▁mAruta	-9.90224
dayA	-9.90255
▁vAma	-9.90282
arhasi	-9.90285
ABaraR	-9.90391
Soza	-9.90394
▁manasaH	-9.90443
varad	-9.90488
nASanaH	-9.90499
▁mftyuH	-9.90547
virAw	-9.9057
▁kzayam	-9.9064
mAyayA	-9.90678
ASv	-9.90702
pratigrah	-9.90858
vyaktaM	-9.90925
pradakziRam	-9.90936
BUtaH	-9.90945
▁tatr	-9.90959
nil	-9.90994
cUrRaM	-9.91021
gIta	-9.91045
▁SarIram	-9.91054
hfdaye	-9.91097
▁vIryam	-9.91122
▁aSvameD	-9.91162
▁hasti	-9.91193
enApi	-9.91202
jAla	-9.91215
Adizu	-9.91226
▁viBIzaR	-9.91228
UnAM	-9.91231
buDyate	-9.91369
tejo	-9.9139
Ayur	-9.91421
varRaM	-9.91494
▁Ka	-9.91497
▁etAn	-9.91511
suvrata	-9.91575
prasUt	-9.9165
bIBats	-9.91707
vfTA	-9.91707
purohit	-9.91728
▁jIvet	-9.91739
Ary	-9.9175
sukft	-9.91753
prahAr	-9.91781
saMSray	-9.91787
jitvA	-9.9181
golak	-9.91842
vIryeRa	-9.91908
▁mAhAtmyam	-9.91922
mAtul	-9.91945
icCatA	-9.91983
nyo	-9.92007
SayAn	-9.92097
▁ari	-9.92102
svarRa	-9.92176
icC	-9.92199
samAgat	-9.92237
sahasreRa	-9.92238
puna	-9.9228
karI	-9.92311
▁Gora	-9.92355
▁haraH	-9.92433
pibet	-9.92435
Agra	-9.92503
vismay	-9.92538
bAhy	-9.92538
Baj	-9.92573
▁pakva	-9.92574
▁BImaH	-9.92575
SuDyati	-9.92577
BittvA	-9.92577
dyuti	-9.92587
▁prAhuH	-9.92592
fcC	-9.92598
vapuH	-9.92601
caryA	-9.92611
▁AgatA	-9.92624
▁pARqavAnAm	-9.92671
mAsi	-9.92687
granTi	-9.92756
▁upavAs	-9.92841
paSyet	-9.92882
yajan	-9.92912
puruzaM	-9.92926
keSav	-9.92955
paSyan	-9.92985
▁indrasya	-9.9302
▁evamuktvA	-9.9302
vetti	-9.93036
▁Suka	-9.93066
▁kfzRaH	-9.93136
kfd	-9.93151
saras	-9.93212
droh	-9.93267
krameRa	-9.93344
bahul	-9.93373
▁kzAra	-9.93425
drOpadI	-9.93454
▁idAnIm	-9.93454
kElAsa	-9.93454
dUzaR	-9.93454
▁dfzwam	-9.93506
kUp	-9.93534
▁kzaRAt	-9.93617
▁snigDam	-9.93627
trE	-9.9369
dvijaH	-9.93713
▁dfzwaH	-9.93823
pitaraM	-9.93853
▁Badram	-9.93954
kAvy	-9.93981
sfja	-9.93989
kalO	-9.93989
▁hetuH	-9.94073
upadrav	-9.94078
puruzo	-9.94153
nandi	-9.94173
svAdu	-9.94205
▁gfham	-9.94245
sPu	-9.94286
rUpAya	-9.94311
rasaM	-9.94321
mAza	-9.9442
vedapArag	-9.94452
yAvat	-9.94483
prayacCati	-9.94524
aty	-9.94576
samAkul	-9.94641
▁jalam	-9.9468
goptA	-9.94723
vanaM	-9.94746
rahasy	-9.94753
dAru	-9.94769
pUjayan	-9.94814
nto	-9.9486
sidDaye	-9.94869
▁sahasram	-9.94878
▁aDaH	-9.94944
Buv	-9.9496
mbu	-9.95013
gadA	-9.95102
gantA	-9.95115
▁mayaH	-9.95136
▁maDuram	-9.95139
meDA	-9.9516
pfzWa	-9.95232
sasarja	-9.95234
BEkz	-9.95237
vacaHSrutvA	-9.95254
Denu	-9.95268
narmadA	-9.95287
▁alam	-9.95339
uktavAn	-9.95373
nila	-9.95374
DArayet	-9.95386
▁guhya	-9.95458
BiSca	-9.9547
▁kfpa	-9.95491
▁fziH	-9.95494
apya	-9.95588
▁SOcam	-9.95601
▁sidDam	-9.95819
▁vfttiH	-9.95878
dahan	-9.9588
mun	-9.95926
yajYasya	-9.95941
▁meGa	-9.96037
▁dravyam	-9.96115
BuYj	-9.96133
ikzvAku	-9.96133
yuYjIta	-9.96134
▁yayAtir	-9.96138
sampannaH	-9.96159
viDAnena	-9.96181
manuj	-9.9623
samanvitA	-9.96269
▁prasAdAt	-9.96285
▁indriyaH	-9.96291
vartin	-9.96334
gfhRAti	-9.96344
nIti	-9.96374
svADyAy	-9.96396
▁vasizWaH	-9.96402
nyAsa	-9.96436
▁deyam	-9.96455
SaMsa	-9.9646
nyasya	-9.96495
pradadO	-9.96521
rAjYa	-9.96557
rDa	-9.96567
▁atIva	-9.96576
MkftvA	-9.9666
DvaM	-9.96674
kuRqa	-9.96682
GoraM	-9.96901
▁bARa	-9.96954
prayacCa	-9.97011
mUrDni	-9.97042
nahuz	-9.9705
viSizyate	-9.97067
vfzRi	-9.97091
praTit	-9.97105
▁strIRAm	-9.97111
lokapAl	-9.97113
Atura	-9.97113
taruR	-9.97124
prAya	-9.97156
nASan	-9.97246
▁dIpta	-9.97348
vatsar	-9.97379
SAk	-9.97417
▁arDam	-9.97456
raYjan	-9.97576
sampravakzyAmi	-9.97622
cetasaH	-9.97629
gacCe	-9.97699
jAnan	-9.97707
stAta	-9.97707
tenEva	-9.9774
prakAr	-9.97784
parameSvaraH	-9.97787
viSvAsa	-9.979
▁rAvaRaH	-9.97913
GrARa	-9.97961
tizWa	-9.97973
gfhRI	-9.98002
yamunA	-9.98003
Sasyate	-9.98034
Ardr	-9.9814
saMsAr	-9.98176
puwam	-9.983
keSava	-9.98322
jIvanti	-9.98442
▁sutam	-9.98473
Atmano	-9.98478
sirA	-9.98536
cAriRaH	-9.98624
ByAs	-9.98636
locanaH	-9.98685
praharaR	-9.98794
▁icCa	-9.98815
Amyaham	-9.98867
jvalit	-9.98873
▁haya	-9.98881
durDarza	-9.98885
vyUh	-9.9889
pAra	-9.98909
▁graha	-9.98991
▁azwaka	-9.98994
▁Kara	-9.9901
hAri	-9.99078
saMsarg	-9.99103
▁palA	-9.99105
AkASe	-9.99145
vikray	-9.9915
prayAg	-9.99224
sTo	-9.99255
Cinn	-9.99267
niboData	-9.99384
yaSas	-9.99417
Sakun	-9.99431
yajYe	-9.99431
suKaM	-9.99448
samAvft	-9.99492
pralay	-9.99503
▁jitA	-9.99542
yarTaM	-9.9965
▁yajYaH	-9.99711
▁zoqaSa	-9.99714
sADAraR	-9.99778
kAreRa	-9.99812
cezwit	-9.99813
jyotiH	-9.9982
nAmnA	-9.99823
mivA	-9.99862
govinda	-9.9989
varze	-9.99898
▁tulyam	-9.9991
triMSat	-9.99918
▁anyA	-9.9995
DigacCati	-9.99962
svapne	-10.0001
jAti	-10.0002
upapann	-10.0002
▁aDikam	-10.0008
mUlaM	-10.0017
uday	-10.002
cakzuz	-10.0021
pfTu	-10.0022
tIti	-10.0028
rAmasya	-10.003
▁pradA	-10.003
mavApnoti	-10.004
martya	-10.0041
vyapoh	-10.005
cEk	-10.0053
nivftti	-10.0061
dakziRA	-10.0068
paryant	-10.007
virecan	-10.0077
fzaB	-10.0078
Bartf	-10.0078
Danuz	-10.0081
Kalve	-10.0082
udAhftam	-10.0086
prajApate	-10.0087
▁vfttam	-10.0087
laG	-10.0088
mada	-10.0093
gantavy	-10.0094
pAR	-10.0102
SuBaM	-10.0107
parva	-10.0108
sTUl	-10.0117
ruk	-10.0121
▁SAnta	-10.0129
hantA	-10.0132
▁jYeyam	-10.0135
vizRur	-10.0137
▁dozAH	-10.0141
svap	-10.0146
janaka	-10.015
triMS	-10.0152
karz	-10.0155
vESravaR	-10.0156
dAnam	-10.0157
▁vitta	-10.0158
nyasta	-10.0158
▁sTAvara	-10.0159
SrezWaM	-10.0162
vinay	-10.017
moda	-10.017
dAtum	-10.017
dravEH	-10.017
▁vajram	-10.0171
kfmi	-10.0172
prAYjal	-10.0172
Srotriy	-10.0172
deyaM	-10.0173
▁apaSyat	-10.0176
kzamA	-10.0178
▁saMvatsara	-10.0178
▁kAraRa	-10.0179
mUrDani	-10.0181
nala	-10.0189
▁akzaram	-10.0193
▁pAka	-10.0194
samAhit	-10.0201
▁saMsAra	-10.0208
▁hfzwa	-10.0208
vijYAn	-10.0209
Ambu	-10.0211
Apt	-10.0213
nugrah	-10.0217
▁agre	-10.0221
uzRa	-10.0225
▁vismaya	-10.0225
girA	-10.0226
P	-10.0232
marma	-10.0241
hatvA	-10.0246
vayo	-10.0249
Agaman	-10.0257
nidarSanam	-10.026
rucir	-10.0265
pfTivyAM	-10.0268
kurURAm	-10.0268
pulah	-10.0268
vyavasAy	-10.0271
▁anyAn	-10.0271
▁Sivam	-10.0276
viSAl	-10.0278
tuzwA	-10.028
hantum	-10.0283
ihA	-10.0287
Arjava	-10.0289
sAkzi	-10.0297
vApa	-10.0303
▁sahitAH	-10.0304
sOKy	-10.0309
kupy	-10.0316
kzayA	-10.0317
stvayA	-10.0319
▁muhUrtam	-10.032
▁ambara	-10.032
srot	-10.0329
arjunauvAca	-10.0331
candramas	-10.0333
nandanaH	-10.0333
gayA	-10.0344
yantram	-10.0352
▁paramA	-10.0355
varma	-10.0357
▁samAna	-10.0357
▁Sezam	-10.0362
gfhRan	-10.0371
▁apaham	-10.0374
samyak	-10.0376
vedanA	-10.0381
yatnena	-10.0386
viviDAnica	-10.0398
Basm	-10.0398
evahi	-10.0405
Sapt	-10.0408
ocyate	-10.0409
pAvan	-10.0415
yuDizWir	-10.0418
homa	-10.0419
bIjaM	-10.042
vftra	-10.0426
▁agninA	-10.0428
nyonya	-10.0431
▁vastra	-10.0446
cakzur	-10.0448
▁saMyoga	-10.0448
tuzwi	-10.0451
SiKaRq	-10.0452
tAraM	-10.0455
sarvaloka	-10.0456
▁prakASa	-10.0457
kOsaly	-10.0463
▁CAyA	-10.0463
parAyaRaH	-10.0463
SAsanAt	-10.0463
biBe	-10.0464
rAmo	-10.0475
vyApt	-10.0477
▁tAsAm	-10.0482
mayo	-10.0482
BAvayet	-10.0487
dfk	-10.0488
gIt	-10.0492
Sarv	-10.0504
baDn	-10.0506
Kaqg	-10.0512
mahAtmAnam	-10.0521
ityeva	-10.0523
AjYayA	-10.0535
pArSva	-10.0542
sadfSam	-10.0545
mukto	-10.056
BAradvAja	-10.0562
DUp	-10.0564
hIyate	-10.0564
EstaTA	-10.0566
ganDarvAH	-10.0566
nAhaM	-10.0569
gfhRIyAt	-10.0569
▁utsfjya	-10.0571
kesar	-10.0573
buDEH	-10.0573
anujYA	-10.0582
▁vidaH	-10.0584
▁jAtam	-10.059
▁gaREH	-10.0591
utpadyate	-10.0593
sfjya	-10.0597
pfTak	-10.06
vartma	-10.0601
naSyant	-10.0601
▁tasyAm	-10.0604
▁aDipaH	-10.0606
vAsas	-10.0611
amarz	-10.0624
omahAn	-10.0629
rAmaM	-10.0634
marhati	-10.0634
brahmacAriR	-10.064
hrasv	-10.0647
svAmin	-10.065
▁snAnam	-10.0653
▁yamaH	-10.0653
roha	-10.0657
vfttaM	-10.0659
bfMhaR	-10.0662
varjitam	-10.0663
pIqA	-10.0663
▁tuzwaH	-10.0668
▁sEnDava	-10.0669
sAtmy	-10.0677
SarIriR	-10.0678
vindati	-10.068
veza	-10.0686
modate	-10.0687
ESvary	-10.069
oday	-10.0691
▁devEH	-10.0702
rukma	-10.0711
▁ityukt	-10.0716
Badr	-10.073
kAlo	-10.0737
▁anala	-10.0739
▁ekEka	-10.0739
magn	-10.0742
aMsmftam	-10.0755
pahft	-10.0756
▁SItam	-10.0758
▁itihAsam	-10.0759
pUjayitvA	-10.0763
cikzepa	-10.0763
namaste	-10.0763
▁ApnuyAt	-10.0764
tAvak	-10.077
varAn	-10.0771
dvApare	-10.0771
darpa	-10.0772
banDanam	-10.0773
karot	-10.0787
sakta	-10.0791
SaktyA	-10.0805
Ayatana	-10.081
prItyA	-10.0814
Avart	-10.0815
dvO	-10.0827
patanti	-10.0836
varAH	-10.0842
viviDAn	-10.0852
kAlena	-10.086
trAs	-10.086
Pull	-10.0865
hfzIkeSa	-10.0865
drORi	-10.0865
dugD	-10.0865
guREr	-10.0868
varteta	-10.0868
marIci	-10.087
vihAya	-10.0873
▁anyacca	-10.0876
SatruGn	-10.0877
Druvam	-10.0878
Bikzu	-10.0883
▁etEH	-10.0884
gatir	-10.0892
AMSu	-10.0893
mAnasya	-10.0895
icCanti	-10.0901
BUyo	-10.0917
suto	-10.092
pArag	-10.092
stezAM	-10.092
▁darSana	-10.0938
mAtraM	-10.0938
meD	-10.0949
lav	-10.0951
Bfgu	-10.0954
vibuD	-10.0957
samavAy	-10.0962
praveS	-10.0968
jIrR	-10.0968
dvijAtayaH	-10.0968
praviveSa	-10.0968
vIkzya	-10.0969
vAde	-10.0973
▁danta	-10.0983
vESy	-10.0988
sarvEr	-10.0989
taTEvA	-10.0993
Asane	-10.1001
viSrutam	-10.1007
nirudD	-10.1009
prApti	-10.1015
vaset	-10.102
▁hfdayam	-10.1025
jYAnAt	-10.1026
▁viSudDa	-10.103
kzetrajYa	-10.1032
prayayO	-10.1035
▁maDuraH	-10.1045
dadarSa	-10.105
rakzati	-10.1054
devAya	-10.1062
lokezu	-10.1062
kANkziR	-10.1067
kfzRadvEpAyan	-10.1072
laNGan	-10.1072
paryApt	-10.1072
▁BavanticAtra	-10.1072
viBakt	-10.1072
pASupat	-10.1073
tElaM	-10.1073
▁brAhmaRasya	-10.1073
▁SataSaH	-10.1073
ramate	-10.1074
DyAtvA	-10.1075
kapot	-10.1076
Agney	-10.1081
▁parASara	-10.1085
varDanam	-10.1086
▁praBava	-10.1088
niva	-10.1095
purogamAH	-10.11
durjay	-10.1101
taj	-10.1107
mAdAya	-10.1111
anek	-10.1114
parAn	-10.1115
tattvena	-10.1124
▁brAhmaRAnAm	-10.113
maDuraM	-10.1133
kftsnam	-10.1142
▁prakftiH	-10.1144
vEvasvat	-10.1145
BiHsaha	-10.1149
Sreyas	-10.1151
▁adfSy	-10.1153
sADakaH	-10.1154
ByaDik	-10.1154
▁udakam	-10.1166
Amalak	-10.1174
▁proktaH	-10.1177
parAyaRam	-10.1178
nityaSaH	-10.1181
tvAt	-10.1182
mEtr	-10.1183
gamanaM	-10.1184
pramARaM	-10.1187
▁vaSam	-10.119
brUyAt	-10.1192
gamizyati	-10.1193
▁dadfSuH	-10.1195
DmAt	-10.1195
▁SanEH	-10.1196
▁pada	-10.1197
trIRi	-10.12
anantaram	-10.1208
udar	-10.1211
vinda	-10.1226
nfpate	-10.1234
nivartate	-10.1237
yaTokt	-10.124
▁viSezaH	-10.1253
▁grAma	-10.1254
▁viduraH	-10.1257
▁agnO	-10.1261
nivAs	-10.1264
AnIk	-10.1267
▁varzA	-10.127
▁aMSam	-10.1271
lop	-10.1278
SlezmA	-10.1284
SmaSAn	-10.1284
prasav	-10.1284
CittvA	-10.1284
gamBIr	-10.1284
SamBu	-10.1284
nUnaM	-10.1288
nirvARa	-10.1295
▁Gana	-10.1301
vaco	-10.1302
ASrame	-10.1302
▁viviDEH	-10.1304
yuDyamAn	-10.1308
samAgatAH	-10.1312
sAtvat	-10.1312
▁icCA	-10.1314
DIr	-10.1315
yamiti	-10.1317
lIyate	-10.132
prApto	-10.1323
▁acal	-10.135
aMSena	-10.1352
pARqavAnAM	-10.1356
vicakzaRaH	-10.1359
▁sTira	-10.1361
▁svADyAya	-10.1369
pizwa	-10.1388
dfSya	-10.1389
vyaTit	-10.139
kOSika	-10.1391
tadeva	-10.1392
pArzata	-10.1393
▁aDama	-10.1394
▁vraRa	-10.1394
kirIw	-10.1395
DAtrI	-10.1397
▁drava	-10.1401
niroD	-10.141
patrARi	-10.1411
▁rakzA	-10.1411
dAtA	-10.1412
▁IkzaR	-10.1413
▁aDunA	-10.1421
gre	-10.1422
syeva	-10.1429
praSAnt	-10.1431
saMhAra	-10.1433
pratipadyate	-10.1447
▁prasanna	-10.1447
SvAsa	-10.1448
vasav	-10.1456
itiKyAt	-10.1458
▁upasTit	-10.1459
kaliNg	-10.146
Estu	-10.146
jya	-10.1467
mayI	-10.1469
▁ananta	-10.1469
gala	-10.1469
garuq	-10.147
kapil	-10.1485
yacCa	-10.1486
BUd	-10.1492
vIrO	-10.1496
SraddaDAn	-10.15
vArzReya	-10.15
yuyuDAn	-10.15
SoPa	-10.1501
BadraMte	-10.1501
▁apahaH	-10.1502
▁agry	-10.1502
▁putrARAm	-10.1505
vatsala	-10.1506
strIRAM	-10.1508
daSagrIva	-10.1509
sarpiz	-10.151
tarpaR	-10.151
nirmukt	-10.1511
sarvaBUta	-10.1511
▁etezAm	-10.1515
▁pradam	-10.1515
kartum	-10.1534
Dvam	-10.154
▁aparaH	-10.154
▁etasmin	-10.154
praRav	-10.1543
makar	-10.1547
▁sakft	-10.155
muzwi	-10.1552
pfTivIM	-10.1557
rRav	-10.1569
SaSi	-10.157
caranti	-10.1571
▁praBam	-10.1574
vAli	-10.1574
yuktasya	-10.1579
sUtaM	-10.1582
kumB	-10.1583
devadeveSa	-10.1583
meha	-10.1588
vidaD	-10.159
snigDaM	-10.1601
Ikftam	-10.1602
vinaSyati	-10.1605
▁BrAtfBiH	-10.1606
liKit	-10.1607
Kecar	-10.1611
ESc	-10.1612
dIkzA	-10.1612
manyante	-10.1612
SAsana	-10.1615
naSyati	-10.1617
▁uBaya	-10.1617
sAkzAd	-10.1618
▁pUrRa	-10.162
▁vAsaH	-10.1631
oBUtvA	-10.1638
devadevasya	-10.1639
rASi	-10.1644
vasTA	-10.1646
SrezWAH	-10.1646
edaM	-10.1663
lokAnAM	-10.1663
nirdeS	-10.1666
BraM	-10.1667
vawa	-10.1668
▁uttare	-10.1671
AvaraR	-10.1671
viBIzaRa	-10.1671
vfttA	-10.1674
gfDr	-10.1676
Srotra	-10.1686
tAvat	-10.1687
svarUp	-10.1693
yatrA	-10.1702
jave	-10.1708
puraskft	-10.1713
yutA	-10.1713
NgAra	-10.1718
amitihAsaM	-10.1721
pratizeD	-10.1721
rka	-10.1722
praSaMsanti	-10.1724
▁lakzmaRaH	-10.1725
paSav	-10.1726
atikramya	-10.1735
praSaman	-10.1736
rADey	-10.1742
viSrutA	-10.1743
mAtre	-10.175
▁vega	-10.175
kAkutsTa	-10.1753
gatiM	-10.1764
vidyayA	-10.1777
SArdUl	-10.1784
kardam	-10.1788
gop	-10.1795
SvatT	-10.1811
saMskAr	-10.1814
▁SUnya	-10.1818
sarvezAm	-10.1818
▁loBa	-10.183
pfzWe	-10.1833
BuYjIta	-10.1834
SvaSur	-10.1834
hime	-10.1843
arzaBa	-10.1846
syur	-10.1853
▁suhft	-10.1857
DarmajY	-10.1857
▁PalAni	-10.1858
▁udaka	-10.1859
▁gfha	-10.1863
gagan	-10.1871
▁asyAH	-10.1877
▁avasTA	-10.1885
▁viprAH	-10.1887
▁ruDira	-10.1889
▁vicitra	-10.1894
Dip	-10.1899
mfte	-10.1902
vihIna	-10.1908
prAjYa	-10.1914
manasi	-10.192
yAdav	-10.1922
puzpARi	-10.1925
gOtama	-10.1928
liNgaM	-10.1935
jAmbUnad	-10.1947
raGunandana	-10.1947
ganDamAdan	-10.1947
gAnDarv	-10.1947
piNgal	-10.1948
ramaRIy	-10.1952
seveta	-10.1952
skand	-10.1955
▁oG	-10.1956
dButa	-10.196
BIru	-10.196
▁BuktvA	-10.1961
pUjaye	-10.1961
tvad	-10.1964
Sast	-10.1966
varizW	-10.1969
devarAja	-10.1981
Etad	-10.1983
dvijAti	-10.1991
fc	-10.2018
▁SrAdDam	-10.2024
▁aDyayana	-10.2028
saMmat	-10.2029
▁DUma	-10.2031
suganD	-10.2044
munIn	-10.2045
vAyur	-10.2046
▁Arya	-10.2046
▁skanda	-10.2056
▁udara	-10.2061
saMbanD	-10.2062
mUrCA	-10.2062
aBiDIyate	-10.2062
▁bfhadaSva	-10.2062
baBO	-10.2062
jagmur	-10.2062
hiNgu	-10.2065
▁Dvaja	-10.2066
prAsAd	-10.2072
sAraR	-10.2078
surAn	-10.2079
tezAm	-10.2086
rAD	-10.209
veti	-10.2094
rudrAya	-10.2095
grahI	-10.2096
nazwe	-10.2097
▁rAvaRasya	-10.2102
puzpit	-10.2105
dayit	-10.2108
▁Dfta	-10.2108
Anug	-10.2111
yuj	-10.2116
gavy	-10.2122
viSezeRa	-10.2126
kany	-10.2126
▁akarot	-10.2129
▁eke	-10.2133
samprekzya	-10.214
▁SUraH	-10.2141
hArI	-10.2142
▁SAka	-10.2164
▁krUra	-10.2164
savyasAcin	-10.2178
sEnik	-10.2178
▁kIdfS	-10.2178
▁udAharanti	-10.2178
waka	-10.2178
SAmyati	-10.2179
trizulokezu	-10.2179
▁upavizw	-10.218
avekz	-10.2185
▁aruR	-10.2189
yAcit	-10.2195
pibe	-10.2198
vikfti	-10.2199
kekay	-10.2202
striyA	-10.2205
SAstrARi	-10.2206
tAsAM	-10.2211
vIryaM	-10.2217
rakzitA	-10.2219
drazwuM	-10.2223
▁durlaBam	-10.2224
pAtAla	-10.2226
gamyate	-10.2227
jAnIhi	-10.2229
KyAti	-10.2229
▁varuRaH	-10.2234
pratIt	-10.2238
▁sugrIvaH	-10.2242
matir	-10.2248
snAn	-10.2252
▁viviDa	-10.2252
▁viparIta	-10.2252
gacCan	-10.2253
pitur	-10.2261
Kan	-10.2266
caBArata	-10.2266
Amla	-10.2267
janmani	-10.2274
▁patita	-10.2275
▁ESvaryam	-10.2277
▁nazwa	-10.2277
svasTa	-10.2281
▁abruvan	-10.2288
jaGan	-10.2289
▁manuzya	-10.2293
Sete	-10.2296
BuNkte	-10.2296
▁fzIRAm	-10.2296
vakzyati	-10.2296
vihval	-10.2296
▁astrARi	-10.2297
▁atyanta	-10.2297
SUlin	-10.2307
SirA	-10.2308
SrezWo	-10.231
SiSu	-10.2313
parIt	-10.2313
▁taducyate	-10.2318
indr	-10.2322
varAnan	-10.233
▁saritaH	-10.2332
mekaM	-10.2338
sTal	-10.2342
▁gamanam	-10.2347
▁tyakta	-10.2351
Adapi	-10.2353
Kag	-10.2366
varjay	-10.2368
▁pOra	-10.237
tulyaM	-10.2385
kAryezu	-10.2386
▁sahadeva	-10.2394
yujya	-10.2395
rbud	-10.2414
suvratAH	-10.2416
sOBAgya	-10.2416
Yj	-10.2416
▁indriyARi	-10.2417
mriyate	-10.2419
sidDir	-10.2422
yuktena	-10.2422
BrAtrA	-10.2424
ISAna	-10.2427
pUjayet	-10.2427
muc	-10.243
karuR	-10.2434
▁dIpa	-10.2439
praSaMs	-10.2443
guruRA	-10.2448
vijYeyA	-10.2456
harat	-10.2457
▁svara	-10.2458
munaya	-10.246
vAso	-10.2465
dIyatAm	-10.2473
▁tfRa	-10.2477
carati	-10.2498
kulIn	-10.2501
▁teByaH	-10.2512
spfzw	-10.2513
IkftA	-10.2516
kirIwin	-10.2532
Arcan	-10.2536
▁puraskftya	-10.254
samIpe	-10.254
kumBakarRa	-10.2542
cintayan	-10.2543
vallI	-10.2545
liNgAni	-10.2557
srAv	-10.2558
▁anDaka	-10.2565
▁Cinna	-10.2566
liK	-10.2568
▁pitrA	-10.2568
rAjaputr	-10.2569
saMsTAn	-10.2574
sahasraM	-10.2575
Bujag	-10.2581
▁Sriyam	-10.2588
nAnya	-10.2589
naro	-10.2592
kasmAt	-10.2593
pramadA	-10.2593
▁aparAD	-10.2596
▁GnaH	-10.2601
satkAr	-10.2603
▁vfzy	-10.2604
▁niboDa	-10.2606
velA	-10.2606
▁vayaH	-10.2616
kUw	-10.2622
rAkzasendr	-10.2627
cintayA	-10.2634
samApt	-10.2638
sarvapApa	-10.2639
ntarikz	-10.264
gud	-10.2644
▁badDaH	-10.2646
grIzm	-10.2657
yadfcCayA	-10.2657
drOpady	-10.2657
▁yasmAdAha	-10.2658
pracCann	-10.2658
leBe	-10.2659
▁trayARAm	-10.266
▁AdInAm	-10.2661
dyUta	-10.2663
dAsyAmi	-10.2669
▁brahmARam	-10.267
▁apekz	-10.2672
▁vidAm	-10.2674
kzuDA	-10.2674
dAsyati	-10.2675
tIva	-10.2682
martyA	-10.2684
saMBava	-10.2688
bruvAR	-10.2693
paYcakam	-10.2696
▁SUrAH	-10.2703
▁aDikA	-10.2705
samBavam	-10.2707
▁vidura	-10.271
Agatya	-10.271
▁KyAtaH	-10.271
pitara	-10.2722
miTyA	-10.273
▁jIvita	-10.2733
icCAm	-10.2733
samanvit	-10.2735
AramBa	-10.2737
▁pulasty	-10.2746
maBy	-10.2748
karmaR	-10.2753
Cann	-10.2757
mavApnuyA	-10.2764
dAsy	-10.2766
samaye	-10.2771
▁varRAH	-10.2778
puNK	-10.2781
bahavo	-10.2781
▁evamuktastu	-10.2781
BavizyAmi	-10.2783
yAjy	-10.2783
▁mAtuH	-10.2786
nipAt	-10.2787
maheSvara	-10.2788
cintayat	-10.2791
gantu	-10.2793
vicitrARi	-10.2794
AYjana	-10.2795
pArSv	-10.2806
▁papracCa	-10.2807
cIra	-10.2808
cOr	-10.2813
▁gulma	-10.2816
mApnuyAt	-10.283
▁dIpanam	-10.2833
prAkft	-10.2834
kArakam	-10.2835
anuttamA	-10.2848
▁sTUla	-10.2853
brAhmaRAnAM	-10.286
ceti	-10.2867
mitrARi	-10.287
▁kzut	-10.2871
SuBr	-10.2872
▁sadfSaH	-10.2872
▁kfzRA	-10.2885
bfhaspat	-10.2886
nareSvara	-10.2887
vinazw	-10.2897
kziti	-10.2905
miTun	-10.2906
mArjAr	-10.2906
▁aSvatTAm	-10.2906
dahyamAn	-10.2906
parAjitaH	-10.2907
payasA	-10.2909
sAmarTy	-10.291
kzitO	-10.2917
vAsuki	-10.2921
SArad	-10.293
sidDiM	-10.2932
tizWet	-10.2932
▁fziBiH	-10.2938
▁garuqa	-10.294
AMScEva	-10.2945
▁putrAn	-10.2948
manasvin	-10.295
kIrtan	-10.2951
▁SASvatam	-10.2955
darB	-10.2956
pAnIy	-10.2956
hfzya	-10.2956
BAzit	-10.2958
Sakyate	-10.2959
Danur	-10.296
mudrA	-10.2969
cAreRa	-10.2969
▁mAnasaH	-10.2981
suganDi	-10.2984
vaNg	-10.2985
▁nagara	-10.2989
tac	-10.2995
sampra	-10.2997
vaDU	-10.3001
mavyayam	-10.3007
sevan	-10.3011
cintak	-10.3011
▁kzatriyaH	-10.3023
narADip	-10.3032
trApyudAharantIm	-10.3032
kuwumb	-10.3032
vyoma	-10.3034
kulasya	-10.3035
parAD	-10.3038
durAtmanaH	-10.3043
▁vaktra	-10.3046
avartanta	-10.3049
Sray	-10.3055
▁sAtyakiH	-10.3063
gahan	-10.3084
DarmajYa	-10.309
▁AkASam	-10.3093
yatAmiti	-10.3095
▁anyAni	-10.3111
▁antaka	-10.3124
pUrvokt	-10.3126
vizRor	-10.3127
BAnu	-10.3132
Buk	-10.3137
vipraH	-10.3138
▁lohita	-10.3143
daDi	-10.3152
baDyate	-10.3161
prAjApaty	-10.3161
jANgal	-10.3161
kadamb	-10.3162
durAsad	-10.3162
▁sarpiH	-10.3162
kurvate	-10.3163
▁aSuBam	-10.3167
liptvA	-10.3171
mahAtmAnaM	-10.3174
yajamAn	-10.3175
parjany	-10.3177
sAyujy	-10.3184
cintaye	-10.3193
suparRa	-10.3194
▁bfhaspatiH	-10.3201
viditvA	-10.3204
SiKaRqI	-10.3205
puzw	-10.3207
▁kawuka	-10.3225
▁arTi	-10.3247
anuvartate	-10.3251
pUrvak	-10.3253
▁vikAra	-10.3262
saMsparS	-10.3265
sanAtan	-10.3269
▁dagDa	-10.3279
▁ityuktvA	-10.3281
saram	-10.3288
upEti	-10.3291
▁BartAram	-10.3293
▁gfhIta	-10.3294
puruzarzaBa	-10.3294
asaMSayam	-10.3295
kaTayAmi	-10.3297
SfRvan	-10.3301
▁prAyaH	-10.3305
hetunA	-10.3308
▁kuSa	-10.3309
▁baBUvuH	-10.331
nemi	-10.3313
▁pAdO	-10.3314
mfzw	-10.3314
sADUn	-10.3321
▁bAhya	-10.3323
puRqarIkAkz	-10.3323
daDe	-10.3326
▁ABaraRa	-10.3327
ajAyata	-10.3351
rGy	-10.3353
vimucyate	-10.3358
cetana	-10.3366
dvipa	-10.3369
▁jYeyaH	-10.3374
carat	-10.3374
▁daSA	-10.3379
SASvatI	-10.3393
vaktA	-10.3397
▁lepa	-10.34
▁yAjYavalkya	-10.3405
Sulba	-10.3422
bfhat	-10.3422
▁mumoca	-10.3422
mAtuluNg	-10.3422
▁anyezAm	-10.3422
▁karomi	-10.3423
mUrDa	-10.3424
leKy	-10.3424
▁cakruH	-10.3424
AMstaTA	-10.3425
▁anftam	-10.3425
gacCAmi	-10.3426
samASrit	-10.3434
meDy	-10.3447
utTAn	-10.3449
pARinA	-10.3451
▁prAjYaH	-10.3452
gAlava	-10.3454
jAnanti	-10.3462
tadDi	-10.3464
sObala	-10.3466
viSad	-10.3469
▁vAnarAH	-10.3469
vanaspat	-10.3473
parityakt	-10.3474
jambIra	-10.3474
Dvani	-10.3486
tasyEva	-10.349
piban	-10.3512
▁puruzAH	-10.3512
mene	-10.3517
vESya	-10.3523
papracC	-10.3529
patati	-10.3542
▁udaya	-10.3546
bAzpa	-10.3555
taRqul	-10.3555
▁aYjali	-10.3555
▁BartuH	-10.3556
hetavaH	-10.3556
vajraM	-10.3557
▁dadAmi	-10.3557
kartuM	-10.3558
mfttikA	-10.3558
mAgaD	-10.3559
▁kOrava	-10.3563
kAMsya	-10.3572
citrasena	-10.3578
siMhanAd	-10.358
▁umA	-10.3585
SaSaMs	-10.3586
▁kzaRam	-10.3591
▁mAtaram	-10.3601
pragfhya	-10.3602
yUz	-10.3603
▁dvitIyaH	-10.3605
vacas	-10.3609
▁Boga	-10.361
SaNkit	-10.3612
DAma	-10.3617
raktaM	-10.3619
yuzit	-10.3629
▁dine	-10.3629
cakzate	-10.363
gacCant	-10.364
mftyur	-10.3643
▁prajAnAm	-10.3673
putraka	-10.3677
EzA	-10.3677
asyEva	-10.3688
SradDayA	-10.3691
kaWin	-10.3691
lOkik	-10.3691
▁BavaticAtra	-10.3691
▁asmABiH	-10.3691
vilAs	-10.3691
Danvantar	-10.3691
musal	-10.3691
viduzA	-10.3691
dahati	-10.3691
▁dvayoH	-10.3692
pipAs	-10.3695
kftrima	-10.3696
mArIc	-10.3697
mahAtmane	-10.3701
▁bahUni	-10.3702
prAhur	-10.3704
nyAy	-10.3707
vAyadivA	-10.3708
nivizw	-10.3708
sarzap	-10.3714
drazwu	-10.3723
▁vijYeyaH	-10.3727
itime	-10.3729
tiktA	-10.373
vaktum	-10.3744
vakzyAm	-10.3753
raNg	-10.3755
▁ukte	-10.3768
vAyunA	-10.3771
yaSasvinI	-10.3774
kOntey	-10.3789
eSAn	-10.379
▁vEdya	-10.3794
zaw	-10.3799
▁vistAr	-10.3802
viSvAmitra	-10.3809
▁anugraha	-10.3815
Eza	-10.3816
vyaT	-10.3821
krIt	-10.3823
kalah	-10.3825
gnihotr	-10.3828
kaTita	-10.3833
▁kaTitaH	-10.3849
AByantar	-10.3854
Scatur	-10.3855
▁apsar	-10.3856
▁samasta	-10.3872
▁nihatya	-10.3874
odan	-10.3885
vyaTA	-10.3886
▁sutAH	-10.3894
tfp	-10.3895
▁AtmAnaH	-10.3897
▁kapila	-10.3901
cezw	-10.3901
ANgul	-10.3902
AHsmftAH	-10.3903
▁dUra	-10.3905
▁anug	-10.3911
▁kAYcana	-10.3916
carant	-10.394
▁niBa	-10.3942
acinty	-10.3946
Sceti	-10.3952
kArakaH	-10.3965
sPawik	-10.3966
vfRI	-10.3966
parANmuK	-10.3967
jaNG	-10.3967
samapraB	-10.3967
jihm	-10.3967
dvitIye	-10.3969
▁aSma	-10.397
mlecC	-10.3971
puruzavyAGra	-10.3972
pfcCA	-10.3972
pratyaBAzata	-10.3972
paYcamam	-10.3975
▁tala	-10.3977
AdIni	-10.3979
parABav	-10.3979
▁upapadyate	-10.3985
DarmizW	-10.3993
ropaR	-10.3994
avasTitam	-10.3997
dehinaH	-10.3998
avekzya	-10.3999
ADAra	-10.4002
kfn	-10.4002
BOm	-10.4005
pariSrAnt	-10.4012
saMsT	-10.4019
vihAr	-10.402
varzaSat	-10.4038
kartavyA	-10.404
▁AjYA	-10.4041
snAnaM	-10.4044
harzaR	-10.4053
satI	-10.408
baBUvu	-10.4086
▁gada	-10.41
kfTAH	-10.4107
▁SrUyatAm	-10.4107
SOry	-10.4108
vAsAMsi	-10.4108
nArAc	-10.4114
anekaSaH	-10.4115
▁vismit	-10.4115
pfTag	-10.4125
SakreRa	-10.4127
▁gantum	-10.4129
gnO	-10.4133
Atape	-10.4133
putrARAM	-10.4137
prapadye	-10.414
▁aDikaH	-10.4144
▁adButa	-10.4145
▁SyAma	-10.4152
gurv	-10.4155
▁vijYAnam	-10.4157
kokil	-10.4162
▁ISaH	-10.4168
mArgeRa	-10.4172
▁arTAH	-10.4177
maDunA	-10.42
▁druta	-10.4205
nizPal	-10.4208
BakzaRa	-10.4216
GnA	-10.4224
ayoDyA	-10.4225
paramAMgati	-10.4242
kukkuw	-10.425
prasravaR	-10.425
▁taTAcoktam	-10.425
▁azwAvakra	-10.425
picCil	-10.425
Indriy	-10.425
saMsadi	-10.425
klizw	-10.4251
▁aDyAyaH	-10.4253
meDAvI	-10.4254
▁arcana	-10.4255
▁asmat	-10.426
vamAn	-10.4265
vizRo	-10.4271
jIved	-10.4271
vijYAta	-10.4271
mADav	-10.4271
mahIpAla	-10.4272
yaTASakti	-10.4277
▁tAmas	-10.4284
bahuBir	-10.429
▁kartavyaH	-10.4301
kzipan	-10.4304
▁gfDra	-10.4309
ekEk	-10.4314
vAsinAm	-10.4323
▁tyAgaH	-10.4329
nararzaB	-10.433
▁nivftta	-10.4353
brahm	-10.4359
cEv	-10.4373
dadfSu	-10.4374
samudAhft	-10.4381
pradAsyAmi	-10.4384
aBiprAy	-10.4392
nirdiSet	-10.4395
paYcASat	-10.4395
prApnuvanti	-10.4397
tfpyati	-10.4397
▁fzaBAH	-10.4408
nimez	-10.4411
munayo	-10.442
tuzwo	-10.4421
cAnya	-10.4424
muzR	-10.4441
▁prAtaH	-10.4445
turag	-10.445
▁hareH	-10.4453
taTAny	-10.446
▁ABam	-10.4461
▁gaRAn	-10.4485
kAkutsT	-10.45
krIqan	-10.451
▁palam	-10.4521
▁kamala	-10.4521
▁uttarA	-10.4523
svacCa	-10.453
daridr	-10.4542
drazwavy	-10.4542
pinAkin	-10.4542
samapadyata	-10.4542
balavattar	-10.4542
varjy	-10.4542
vESvAnar	-10.4543
jAnAsi	-10.4543
Bizaj	-10.4543
kaluz	-10.4544
yamAno	-10.4551
▁yoginAm	-10.4552
sPuwa	-10.4552
▁arTAn	-10.4552
mahAdevo	-10.4555
vAriRA	-10.4556
AvasaT	-10.4557
yasmAd	-10.4559
pratIkz	-10.456
DArayan	-10.4562
caRqa	-10.4563
vrIh	-10.4564
nirRay	-10.4567
DikAr	-10.4572
▁arTI	-10.4575
SastrARi	-10.4582
▁Uru	-10.4583
▁toyam	-10.4584
hanyate	-10.4597
ABra	-10.461
ozit	-10.4616
▁jyezWaH	-10.4618
vfzaB	-10.4634
pibat	-10.4645
paramAtmA	-10.465
▁manuja	-10.4654
▁gfhasTa	-10.4668
brUyA	-10.4673
▁catvAri	-10.4676
ruj	-10.4686
▁vartamAna	-10.4694
kiMnu	-10.4707
maDyama	-10.4714
DOt	-10.4717
pradIpt	-10.472
▁antarikza	-10.4724
nukUl	-10.4726
▁lubD	-10.4726
karizyasi	-10.4728
kaTayati	-10.4728
viMSa	-10.4735
visfj	-10.4736
SiraH	-10.4738
▁DArmikaH	-10.474
tatkzaR	-10.4741
yajet	-10.4742
▁SItalam	-10.4748
triBir	-10.4748
▁upamam	-10.4767
samprAptA	-10.4768
ABAs	-10.4777
paramAtman	-10.4783
▁matim	-10.4785
mAmak	-10.4791
odara	-10.4794
jaq	-10.4803
tikram	-10.4809
marda	-10.4814
Bfg	-10.4815
Cidra	-10.4819
nipuR	-10.4823
ByanujYAt	-10.4826
UrDv	-10.4832
jaWar	-10.4843
vapuzA	-10.4843
dAqim	-10.4843
jyotir	-10.4843
niveSanam	-10.4843
ranDr	-10.4843
▁brahmacaryam	-10.4843
vimfS	-10.4844
mAheSvar	-10.4844
cihn	-10.4844
virUpAkza	-10.4844
mAciram	-10.4845
kanyakA	-10.4846
yAsyAmi	-10.4848
rakzan	-10.4848
prARAyAm	-10.485
pUjyate	-10.485
DyAyan	-10.4851
SuSuBe	-10.4857
▁niDanam	-10.4864
▁viSvAmitraH	-10.4864
vetTa	-10.4866
▁gOtamaH	-10.4869
vyavasy	-10.4873
vAruR	-10.4874
Bajet	-10.4883
▁DftiH	-10.4885
pravAl	-10.4891
dvijaSrezWa	-10.4893
cCinn	-10.4897
Sarad	-10.4901
granT	-10.4922
▁AyuDa	-10.4929
sampadyate	-10.4938
gomuK	-10.4945
Scandra	-10.4949
MjYAtvA	-10.498
dunduB	-10.4997
opamA	-10.4997
vinDya	-10.4997
SArNg	-10.4998
namonamaH	-10.4998
pfTakpfTak	-10.4998
idAnIM	-10.4999
▁kAka	-10.5005
kaPavAta	-10.5013
Bavizy	-10.5015
▁AjagAma	-10.5032
tomar	-10.5034
▁vaNga	-10.5039
▁tftIye	-10.5043
maDyA	-10.5049
vAsin	-10.5049
SvAs	-10.5049
pibant	-10.5061
▁vimala	-10.5061
tuByaM	-10.5068
pituH	-10.51
▁DIra	-10.5102
BaraR	-10.5103
tarasA	-10.511
mUly	-10.5147
vedavid	-10.5152
jagmatuH	-10.5153
biBrat	-10.5153
▁SarmizW	-10.5153
▁uttaNka	-10.5153
upAgamat	-10.5153
spand	-10.5153
varDat	-10.5153
BfSa	-10.5153
SatravaH	-10.5154
mUrK	-10.5154
paNkaj	-10.5154
▁dIpyamAn	-10.5155
srotasA	-10.5156
BAzase	-10.5157
paramaMpadam	-10.5157
vfzaDvaja	-10.5157
dvitIyA	-10.5158
Sreya	-10.516
divaM	-10.5165
sTEry	-10.5166
parimAR	-10.5166
SataSo	-10.5172
tapasvI	-10.5175
samagr	-10.5176
▁Cid	-10.5187
vfzw	-10.5188
kumud	-10.5199
vAtapitta	-10.5199
vivek	-10.5203
pratijagrAha	-10.5223
otpal	-10.5231
▁Kaqga	-10.5232
vipAka	-10.5241
▁nyAya	-10.5253
stok	-10.5261
▁aBihat	-10.5263
janamejaya	-10.5263
ASana	-10.5299
dikzu	-10.5312
Bizag	-10.5312
sAkziRaH	-10.5314
▁kubera	-10.5315
▁manuzyARAm	-10.5316
vanavAs	-10.532
bAh	-10.5326
Bojya	-10.534
vaSy	-10.5344
AdyEr	-10.5346
tyarTaH	-10.5348
utkfzw	-10.535
paYcaDA	-10.5351
SApA	-10.5354
pakziRA	-10.536
pratipatti	-10.5362
▁kzatriyAH	-10.5363
▁Srotram	-10.5378
prahara	-10.5378
▁pARqavEH	-10.5388
nadan	-10.5392
▁dUta	-10.5394
▁Ajya	-10.5422
kanIy	-10.5427
vadet	-10.5443
sAkzAt	-10.5445
▁imAn	-10.5456
ucyante	-10.5459
jihv	-10.5472
uccAvac	-10.5473
vaktuM	-10.5473
eByaSca	-10.5473
naravyAGra	-10.5474
jAnapad	-10.5475
sAkzI	-10.5475
BrAtaram	-10.5476
mardit	-10.5476
samprApte	-10.5477
patteH	-10.5479
draviR	-10.5485
prakASate	-10.5486
yOvane	-10.5488
manyata	-10.5491
niScal	-10.5497
valkal	-10.5499
▁Bakzya	-10.5506
▁jYAta	-10.5513
nityadA	-10.5519
sevy	-10.5535
kapard	-10.5559
gaReS	-10.5564
SvameD	-10.5585
▁aBigamya	-10.559
SiS	-10.5604
▁araRye	-10.5612
cAraRA	-10.5622
icCan	-10.5623
kuNkum	-10.5637
jyotizA	-10.5637
BrAtarO	-10.5637
▁rAjovAca	-10.5637
▁prAYjaliH	-10.5638
mahApurARe	-10.5639
kadalI	-10.5639
▁upekz	-10.564
plavag	-10.5646
vyAkul	-10.5653
dEvatEH	-10.5657
kftaGn	-10.5661
▁hitAya	-10.5663
janADipa	-10.5674
viDey	-10.5688
nagn	-10.5697
svAgat	-10.571
▁puRye	-10.5716
vAmadev	-10.5728
▁paScime	-10.5747
BaNga	-10.5751
vivAd	-10.577
tatparaH	-10.5777
timir	-10.5782
vfk	-10.5785
Alaye	-10.5794
mAgatam	-10.5801
bodDavy	-10.5804
nyagroD	-10.5804
jawil	-10.5804
drAkzA	-10.5804
tArkzya	-10.5805
jijYAs	-10.5805
▁aparaMca	-10.5807
niDAya	-10.5811
▁upetA	-10.5813
▁apahA	-10.5814
vyApya	-10.5818
▁udvaha	-10.5823
▁kftakfty	-10.5827
▁niyama	-10.5854
▁pralaya	-10.5868
viSvAtmA	-10.5872
saMhitA	-10.589
▁hanta	-10.5908
saptama	-10.5913
praSna	-10.593
palit	-10.593
kaTayant	-10.5944
grast	-10.5946
naBas	-10.595
jagannATa	-10.5973
jajYire	-10.5973
fzIRAM	-10.5973
arizyAmi	-10.5973
SilAjatu	-10.5973
Dfzw	-10.5975
fju	-10.5975
ftvij	-10.5976
balIyasA	-10.5976
yecAnye	-10.5976
pallav	-10.5976
▁vistareRa	-10.5979
▁candramAH	-10.5982
svAmI	-10.5983
takzaka	-10.5985
vagAh	-10.5989
▁SivAya	-10.5989
▁puwet	-10.5991
▁zazWe	-10.5992
ANk	-10.5999
AruR	-10.6
▁itihAsa	-10.6005
DErya	-10.6008
mBasi	-10.601
▁granTa	-10.6021
myahaM	-10.6027
▁vEvasvata	-10.6028
▁dfSy	-10.6039
sureSvara	-10.6046
DArayat	-10.6047
▁Amaya	-10.6076
devarzi	-10.6077
manyamAn	-10.6091
pratihat	-10.6101
Pen	-10.6116
Ambara	-10.6134
mahAmati	-10.6137
prAhiRo	-10.6146
mArdav	-10.6146
BrAtaraH	-10.6146
Bidyate	-10.6146
azwottara	-10.6146
mardayed	-10.6146
grasate	-10.6146
durmate	-10.6147
syandan	-10.6147
▁vAdinaH	-10.6147
pulin	-10.6148
sTavir	-10.6148
▁aKilam	-10.6149
Garm	-10.615
jAnatA	-10.6151
otpatti	-10.6154
eREva	-10.6158
kurv	-10.616
sAntv	-10.6164
wav	-10.6169
mfzA	-10.6178
▁putrO	-10.6179
amBo	-10.6186
mUlaPal	-10.6186
yamARa	-10.6191
vyavasTA	-10.62
Cardi	-10.6201
pfTivIpati	-10.6211
garhit	-10.6223
mandara	-10.624
janeSvara	-10.6242
hiterat	-10.6275
Bajan	-10.6295
▁gagana	-10.6303
eSaH	-10.6312
haranti	-10.6318
SuSrAva	-10.6321
▁itTam	-10.6321
lIlayA	-10.6321
SfRoti	-10.6321
lajjA	-10.6322
udvign	-10.6322
Datte	-10.6323
parvaRi	-10.6324
kaPApah	-10.6324
parivftaH	-10.6327
▁Atapa	-10.6332
vatizWate	-10.6335
sarpir	-10.6336
nimba	-10.6341
prajAnAM	-10.6341
▁rAkzasAnAm	-10.6342
▁mEtreya	-10.6357
▁pipAsA	-10.636
▁avayav	-10.6363
nigfhya	-10.6366
amAnasaH	-10.6368
upaBog	-10.637
ekArRav	-10.6372
▁eziR	-10.6383
kurunandana	-10.6389
▁brahmaRy	-10.6426
yatamAn	-10.6428
malin	-10.6431
Gnanti	-10.645
GAtin	-10.6478
virah	-10.6495
kaTayizyAmi	-10.65
sTAvarajaNgam	-10.65
siDyanti	-10.65
▁sarAMsi	-10.65
SatakratuH	-10.65
Sreyo	-10.6501
▁uraga	-10.6501
▁indriyARAm	-10.6503
vaktumarhasi	-10.6504
nirBay	-10.6504
cakrire	-10.6504
zoqaSIm	-10.6504
vallaBa	-10.6506
▁utsav	-10.6507
vivikt	-10.6508
gurO	-10.6508
▁kuruzva	-10.6509
vyaBicAr	-10.651
nikzipya	-10.6513
menire	-10.6515
mutsfjya	-10.6515
maRqap	-10.6525
vrAt	-10.6532
▁ityevaM	-10.6542
parvasu	-10.6558
bAhU	-10.6575
yajat	-10.6575
▁aSru	-10.6608
▁jambIr	-10.661
madIy	-10.6629
▁mohAt	-10.6643
AMstAn	-10.6662
bahava	-10.6665
SaraB	-10.6674
maRqUk	-10.6681
svAyamBuv	-10.6681
▁mAdrI	-10.6682
▁agamat	-10.6682
rakzasAM	-10.6682
▁divam	-10.6682
▁jYAtum	-10.6684
vidvAMsa	-10.6685
DAtavaH	-10.6687
tasyE	-10.6691
lakzmyA	-10.6692
yAsyanti	-10.6694
utsAh	-10.6697
vaktavyam	-10.6702
rakzAMsi	-10.6702
valay	-10.6703
kimarTaM	-10.6706
▁indu	-10.6709
abravI	-10.6711
▁yaja	-10.6713
▁arRava	-10.6722
▁setu	-10.6723
Dvast	-10.6729
▁aByAsa	-10.6742
viSezaR	-10.676
sUkt	-10.6764
naraSrezWa	-10.679
kANkzit	-10.6805
rhati	-10.6838
aDo	-10.6855
tasmiMst	-10.6855
ecCA	-10.6864
dudruvu	-10.6866
napuMsak	-10.6866
mOktika	-10.6867
yuyuts	-10.6867
hanizyAmi	-10.6867
viDIyatAm	-10.6867
pratIkAS	-10.6867
vfnd	-10.6867
Sulva	-10.6867
sADavaH	-10.6867
kirAt	-10.6867
prIyat	-10.6867
pratyapadya	-10.6867
▁prARinAm	-10.6868
stotr	-10.6868
sTARu	-10.6869
muddiSya	-10.687
kulatT	-10.6871
rudDa	-10.6875
caRqAl	-10.6877
sevate	-10.688
rakzasaH	-10.6882
▁devatAnAm	-10.6885
hemn	-10.6885
pravartak	-10.6892
catvAriMSa	-10.6903
prapannA	-10.6936
Ardraka	-10.6942
syeti	-10.695
▁nftya	-10.6955
prayokt	-10.6957
AtmikA	-10.6967
raktapitta	-10.6987
meKalA	-10.6988
dadat	-10.7016
AkAram	-10.703
rudan	-10.7031
tatrEvAntar	-10.7055
hiraRyakaSipu	-10.7055
biBarti	-10.7055
harItakI	-10.7055
▁agnizwoma	-10.7055
mahArhARi	-10.7055
jambU	-10.7058
varzasahasrARi	-10.7059
▁agneH	-10.706
kurUn	-10.7061
nimn	-10.7063
DidEvatam	-10.7063
durmatiH	-10.7064
▁SarAva	-10.7066
DAtUn	-10.7073
▁ajina	-10.7104
tamasaH	-10.7109
kzatraDarm	-10.7117
AgAra	-10.7127
Agry	-10.7164
prasakt	-10.7177
kUle	-10.7184
panIya	-10.7195
▁aSana	-10.7228
gomay	-10.7236
mukuw	-10.7247
paryupAsat	-10.7247
pradyumn	-10.7247
viprarze	-10.7247
mardayitvA	-10.7248
▁aNgirAH	-10.7248
prokto	-10.7248
tvaramAR	-10.7248
kArzI	-10.7248
upetya	-10.7248
balAhak	-10.7249
apsarasaH	-10.7249
BrAjamAn	-10.7249
hiraRmay	-10.725
kacCap	-10.725
krimi	-10.7251
snuzA	-10.7252
buDyase	-10.7253
vadAmi	-10.7255
bahv	-10.7258
smArt	-10.7259
prezy	-10.7261
nAwya	-10.7262
ezyAmi	-10.7262
dvijasattamA	-10.7264
jamadagn	-10.7272
ArADan	-10.7277
praRay	-10.7285
pulastya	-10.7302
gardaB	-10.7307
SrISiva	-10.7315
nirAmay	-10.7325
ANgo	-10.7344
pUjaya	-10.7348
parimit	-10.7353
bahir	-10.7408
pEtAmah	-10.7442
NguzW	-10.7444
ahorAtr	-10.7444
vizRave	-10.7444
ulbaR	-10.7444
nAhuza	-10.7444
bimb	-10.7444
SreyAn	-10.7444
veRu	-10.7444
niyacCati	-10.7444
druh	-10.7446
vAkyamabravIt	-10.7446
▁yaTAkAmam	-10.7449
▁yUyam	-10.7453
SalAk	-10.7467
mArjan	-10.7487
viBajya	-10.7498
vicakzaR	-10.7507
oraga	-10.7512
sattr	-10.7533
pfTivIpate	-10.7552
▁anujYAta	-10.7575
▁araRya	-10.7583
brahmacaryeRa	-10.7644
gARqIv	-10.7644
kurURAM	-10.7644
vAYCa	-10.7644
spfh	-10.7644
▁puMsAm	-10.7644
pedire	-10.7644
jImUt	-10.7644
Ball	-10.7644
Baratasattama	-10.7644
▁upetaH	-10.7644
AccEva	-10.7644
mardyam	-10.7644
paRqitA	-10.7644
maDyAhn	-10.7644
▁utsahe	-10.7645
hEma	-10.7645
sArasvat	-10.7646
jAnIze	-10.7647
pratIkAr	-10.7647
veditavy	-10.7647
SrotumicCAmi	-10.7647
Palaprada	-10.765
Ipsit	-10.7652
BartAraM	-10.7655
nukamp	-10.7669
upalaBy	-10.7679
Srit	-10.7682
taskar	-10.7693
vande	-10.7741
nyUn	-10.7767
opAya	-10.7777
BAziR	-10.7786
▁muKya	-10.7812
kEvalya	-10.7848
▁uddiSya	-10.7848
▁sampannam	-10.7849
svinna	-10.7849
▁asmAt	-10.785
▁icCet	-10.785
▁amlena	-10.7851
mudgara	-10.7852
AyatanAni	-10.7853
rikta	-10.7856
Mpuraskftya	-10.7857
ArRave	-10.7884
rAjYe	-10.7946
aTAbravIt	-10.7955
ruDyate	-10.7987
aBidrut	-10.7994
AMgatim	-10.8012
Sigru	-10.8056
jaGnuH	-10.8056
paWan	-10.8056
varArohe	-10.8056
SmaSru	-10.8056
puzkal	-10.8056
dvezwi	-10.8056
kIcak	-10.8056
vavre	-10.8056
SatrUn	-10.8056
puMsaH	-10.8056
Bagadatt	-10.8057
mriy	-10.8057
varDamAn	-10.8057
kubj	-10.8058
mahAmanAH	-10.8058
Kadir	-10.8059
kzAlan	-10.806
paricArak	-10.806
▁parezAm	-10.8061
pUjyamAn	-10.8063
dvED	-10.8066
brahmARaM	-10.8067
sfjet	-10.8068
gATA	-10.8069
dyUte	-10.807
sAndr	-10.8078
▁kaRva	-10.8091
yugAnt	-10.8108
SIrza	-10.8123
▁prayatn	-10.8152
DftarAzwra	-10.817
lubDa	-10.8174
pramuKA	-10.8196
samAKyAtA	-10.8212
mAnDAt	-10.822
▁marutta	-10.8225
kIrt	-10.8227
pratikUl	-10.8234
kuber	-10.8265
zazwyA	-10.8269
Bizecan	-10.8269
▁antarikze	-10.827
▁pitfpEtAmah	-10.8271
▁prakfteH	-10.8271
pravrajit	-10.8272
pradAyaka	-10.8288
karpUra	-10.8295
vandan	-10.8298
upAdAn	-10.8356
Adfte	-10.8378
ntIha	-10.8382
DunA	-10.8418
laBant	-10.8421
nEzaD	-10.8452
tizWe	-10.846
kaYcuk	-10.8486
gfdD	-10.8486
SocAmi	-10.8486
nandikeSvara	-10.8486
▁BrAtuH	-10.8486
nErft	-10.8486
kArtavIry	-10.8486
pIqan	-10.8487
apsarasAm	-10.8487
mardyaM	-10.8487
jantavaH	-10.8488
prasft	-10.8488
DOmy	-10.8488
rogiR	-10.8488
kartumarhasi	-10.849
dAyinI	-10.8491
pratilom	-10.8499
vARij	-10.8499
viMSatyA	-10.8501
uzyanti	-10.8518
sItayA	-10.852
avApnuy	-10.8526
upADyAy	-10.853
pralAp	-10.8536
kUla	-10.8547
nDakAr	-10.857
Ayuzyam	-10.8574
▁devAUcu	-10.8581
nusAri	-10.8582
narottama	-10.8637
sinDu	-10.8658
ADyayana	-10.8658
kuts	-10.8697
mUtrapurIz	-10.8708
▁SamBoH	-10.8708
paNkti	-10.8708
W	-12.4145
C	-12.4146
